{
  "version": "1.0",
  "truncation": null,
  "padding": null,
  "added_tokens": [
    {
      "id": 0,
      "content": "<unk>",
      "single_word": false,
      "lstrip": false,
      "rstrip": false,
      "normalized": false,
      "special": true
    },
    {
      "id": 1,
      "content": "<bos>",
      "single_word": false,
      "lstrip": false,
      "rstrip": false,
      "normalized": false,
      "special": true
    },
    {
      "id": 2,
      "content": "<eos>",
      "single_word": false,
      "lstrip": false,
      "rstrip": false,
      "normalized": false,
      "special": true
    },
    {
      "id": 3,
      "content": "<problem>",
      "single_word": false,
      "lstrip": false,
      "rstrip": false,
      "normalized": false,
      "special": true
    },
    {
      "id": 4,
      "content": "<code>",
      "single_word": false,
      "lstrip": false,
      "rstrip": false,
      "normalized": false,
      "special": true
    }
  ],
  "normalizer": {
    "type": "Sequence",
    "normalizers": [
      {
        "type": "NFD"
      },
      {
        "type": "StripAccents"
      }
    ]
  },
  "pre_tokenizer": {
    "type": "ByteLevel",
    "add_prefix_space": true,
    "trim_offsets": true,
    "use_regex": true
  },
  "post_processor": null,
  "decoder": null,
  "model": {
    "type": "BPE",
    "dropout": null,
    "unk_token": "<unk>",
    "continuing_subword_prefix": null,
    "end_of_word_suffix": null,
    "fuse_unk": false,
    "byte_fallback": false,
    "ignore_merges": false,
    "vocab": {
      "<unk>": 0,
      "<bos>": 1,
      "<eos>": 2,
      "<problem>": 3,
      "<code>": 4,
      "!": 5,
      "\"": 6,
      "#": 7,
      "$": 8,
      "%": 9,
      "&": 10,
      "'": 11,
      "(": 12,
      ")": 13,
      "*": 14,
      "+": 15,
      ",": 16,
      "-": 17,
      ".": 18,
      "/": 19,
      "0": 20,
      "1": 21,
      "2": 22,
      "3": 23,
      "4": 24,
      "5": 25,
      "6": 26,
      "7": 27,
      "8": 28,
      "9": 29,
      ":": 30,
      ";": 31,
      "<": 32,
      "=": 33,
      ">": 34,
      "?": 35,
      "@": 36,
      "A": 37,
      "B": 38,
      "C": 39,
      "D": 40,
      "E": 41,
      "F": 42,
      "G": 43,
      "H": 44,
      "I": 45,
      "J": 46,
      "K": 47,
      "L": 48,
      "M": 49,
      "N": 50,
      "O": 51,
      "P": 52,
      "Q": 53,
      "R": 54,
      "S": 55,
      "T": 56,
      "U": 57,
      "V": 58,
      "W": 59,
      "X": 60,
      "Y": 61,
      "Z": 62,
      "[": 63,
      "\\": 64,
      "]": 65,
      "^": 66,
      "_": 67,
      "`": 68,
      "a": 69,
      "b": 70,
      "c": 71,
      "d": 72,
      "e": 73,
      "f": 74,
      "g": 75,
      "h": 76,
      "i": 77,
      "j": 78,
      "k": 79,
      "l": 80,
      "m": 81,
      "n": 82,
      "o": 83,
      "p": 84,
      "q": 85,
      "r": 86,
      "s": 87,
      "t": 88,
      "u": 89,
      "v": 90,
      "w": 91,
      "x": 92,
      "y": 93,
      "z": 94,
      "{": 95,
      "|": 96,
      "}": 97,
      "~": 98,
      "¡": 99,
      "¢": 100,
      "£": 101,
      "¤": 102,
      "¥": 103,
      "¦": 104,
      "§": 105,
      "¨": 106,
      "©": 107,
      "ª": 108,
      "«": 109,
      "¬": 110,
      "®": 111,
      "¯": 112,
      "°": 113,
      "±": 114,
      "²": 115,
      "³": 116,
      "´": 117,
      "µ": 118,
      "¶": 119,
      "·": 120,
      "¸": 121,
      "¹": 122,
      "º": 123,
      "»": 124,
      "¼": 125,
      "½": 126,
      "¾": 127,
      "¿": 128,
      "Â": 129,
      "Ã": 130,
      "É": 131,
      "Ê": 132,
      "Ë": 133,
      "Î": 134,
      "Ï": 135,
      "â": 136,
      "ã": 137,
      "ä": 138,
      "å": 139,
      "æ": 140,
      "ç": 141,
      "è": 142,
      "é": 143,
      "ï": 144,
      "ð": 145,
      "Ċ": 146,
      "č": 147,
      "Ġ": 148,
      "Ģ": 149,
      "ģ": 150,
      "Ĥ": 151,
      "ĥ": 152,
      "Ħ": 153,
      "ħ": 154,
      "Ĩ": 155,
      "ĩ": 156,
      "Ī": 157,
      "ī": 158,
      "Ĭ": 159,
      "ĭ": 160,
      "Į": 161,
      "į": 162,
      "İ": 163,
      "ı": 164,
      "Ĳ": 165,
      "ĳ": 166,
      "Ĵ": 167,
      "ĵ": 168,
      "Ķ": 169,
      "ķ": 170,
      "ĸ": 171,
      "Ĺ": 172,
      "ĺ": 173,
      "Ļ": 174,
      "ļ": 175,
      "Ľ": 176,
      "ľ": 177,
      "Ŀ": 178,
      "ŀ": 179,
      "Ł": 180,
      "ł": 181,
      "Ń": 182,
      "ĠĠ": 183,
      "čĊ": 184,
      "ĠĠĠĠ": 185,
      "ĠĠĠ": 186,
      "in": 187,
      "ĠĠĠĠĠĠĠ": 188,
      "st": 189,
      "Ġ=": 190,
      "re": 191,
      "Ġi": 192,
      "int": 193,
      "Ġ<": 194,
      "Ġt": 195,
      "Ġa": 196,
      "Ġ*": 197,
      "or": 198,
      "Ġ}": 199,
      ");": 200,
      "Ġ(": 201,
      "Ġc": 202,
      "on": 203,
      "Ġ{": 204,
      "ĠčĊ": 205,
      "ll": 206,
      "==": 207,
      "Ġre": 208,
      "er": 209,
      "Ġf": 210,
      "en": 211,
      "Ġ/": 212,
      "de": 213,
      "ĠĠĠĠĠĠĠĠĠĠĠ": 214,
      "at": 215,
      "Ġm": 216,
      "Ġst": 217,
      "Ġn": 218,
      "ur": 219,
      "se": 220,
      "Ġ1": 221,
      "Ġ0": 222,
      "ut": 223,
      "Ġb": 224,
      "le": 225,
      "urn": 226,
      "Ġint": 227,
      "turn": 228,
      "ar": 229,
      "::": 230,
      "Ġp": 231,
      "ing": 232,
      "he": 233,
      "Ġs": 234,
      "ct": 235,
      "Ġreturn": 236,
      "ĠĠĠĠĠĠĠĠ": 237,
      "**": 238,
      "Ġif": 239,
      "Ġ//": 240,
      "Ġu": 241,
      "Ġstd": 242,
      "Ġll": 243,
      "it": 244,
      "Ġv": 245,
      "Ġr": 246,
      "al": 247,
      "====": 248,
      "am": 249,
      "Ġ<<": 250,
      "Ġl": 251,
      "Ġ#": 252,
      "Ġfor": 253,
      "Ġthe": 254,
      "ac": 255,
      "es": 256,
      "an": 257,
      "()": 258,
      "Ġx": 259,
      "ed": 260,
      "ĠT": 261,
      "++": 262,
      "Ġd": 263,
      "ion": 264,
      "Ġo": 265,
      "os": 266,
      "cl": 267,
      "end": 268,
      "Ġ@": 269,
      "Ġe": 270,
      "Ġ\"": 271,
      "ect": 272,
      "ss": 273,
      "mp": 274,
      "Ġ-": 275,
      "00": 276,
      "Ġ>": 277,
      "Ġan": 278,
      "Ġw": 279,
      "sing": 280,
      "Ġ&": 281,
      "Ġin": 282,
      "ri": 283,
      "Ġ+": 284,
      "Ġusing": 285,
      "out": 286,
      "ector": 287,
      "Ġte": 288,
      "ine": 289,
      "um": 290,
      "Ġ==": 291,
      "hi": 292,
      "ra": 293,
      "ge": 294,
      "Ġy": 295,
      "od": 296,
      "Ġma": 297,
      "Ġof": 298,
      "clu": 299,
      "clude": 300,
      "include": 301,
      "ue": 302,
      "ou": 303,
      "ĠN": 304,
      "Ġcon": 305,
      "ert": 306,
      "ate": 307,
      "Ġ2": 308,
      "){": 309,
      "ent": 310,
      "ir": 311,
      "def": 312,
      "Ġto": 313,
      "ĠĠĠĠĠĠĠĠĠĠĠĠĠĠĠ": 314,
      "Ġ%": 315,
      "========": 316,
      "ol": 317,
      "ace": 318,
      "ong": 319,
      "iz": 320,
      "Ġres": 321,
      "ble": 322,
      "ode": 323,
      "std": 324,
      "Ġans": 325,
      "pace": 326,
      "Ġlong": 327,
      "ames": 328,
      "****": 329,
      "id": 330,
      "Ġ*/": 331,
      "ize": 332,
      "amespace": 333,
      "Ġconst": 334,
      "ow": 335,
      "uto": 336,
      "ic": 337,
      "];": 338,
      "<<": 339,
      "endl": 340,
      "ass": 341,
      "define": 342,
      "ot": 343,
      ">>": 344,
      "Ġ/**": 345,
      "Ġnamespace": 346,
      "ex": 347,
      "ĠP": 348,
      "Ġg": 349,
      "ist": 350,
      "ma": 351,
      "ro": 352,
      "art": 353,
      "vector": 354,
      "Ġtemp": 355,
      "nt": 356,
      "][": 357,
      "sh": 358,
      "ĠA": 359,
      "ith": 360,
      "Ġmod": 361,
      "();": 362,
      "++)": 363,
      "Ġcout": 364,
      "64": 365,
      "Ġis": 366,
      "Ġwhi": 367,
      "lse": 368,
      "late": 369,
      "Ġ>>": 370,
      "ĠI": 371,
      "Ġse": 372,
      "Ġass": 373,
      "Ġrep": 374,
      "Ġvector": 375,
      "Ġelse": 376,
      "ĠS": 377,
      "ack": 378,
      "Ġ3": 379,
      "ef": 380,
      "Ġassert": 381,
      "and": 382,
      "cout": 383,
      "ul": 384,
      "ouble": 385,
      "ig": 386,
      "bos": 387,
      "im": 388,
      "eos": 389,
      "Ġcin": 390,
      "Ġauto": 391,
      "Ġmain": 392,
      "Ġtemplate": 393,
      "est": 394,
      "ray": 395,
      "ht": 396,
      "is": 397,
      "un": 398,
      "par": 399,
      "ation": 400,
      "Ġtest": 401,
      "->": 402,
      "ch": 403,
      "ment": 404,
      "Ġwhile": 405,
      "));": 406,
      "--": 407,
      "get": 408,
      "iv": 409,
      "bri": 410,
      "brief": 411,
      "ring": 412,
      "oid": 413,
      "Ġar": 414,
      "air": 415,
      "yp": 416,
      "ort": 417,
      "param": 418,
      "th": 419,
      "its": 420,
      "size": 421,
      "ĠĠĠĠĠĠĠĠĠĠĠĠĠĠĠĠ": 422,
      "Ġvoid": 423,
      "ad": 424,
      "Ġj": 425,
      "(\"": 426,
      "ĠM": 427,
      "Ġmax": 428,
      "ase": 429,
      "con": 430,
      "ction": 431,
      "om": 432,
      "Ġ\\": 433,
      "Ġ///": 434,
      "),": 435,
      "ĠC": 436,
      "Ġ*=": 437,
      "Ġch": 438,
      "\",": 439,
      "Ġ:": 440,
      "0000": 441,
      "lement": 442,
      "ce": 443,
      "alse": 444,
      "Ġ<=": 445,
      "Ġk": 446,
      "ber": 447,
      "il": 448,
      "max": 449,
      "].": 450,
      "eg": 451,
      "Ġget": 452,
      "ph": 453,
      "Ġnum": 454,
      "ush": 455,
      "Ġand": 456,
      "bits": 457,
      "ool": 458,
      "ap": 459,
      "class": 460,
      "Ġval": 461,
      "Ġdouble": 462,
      "++.": 463,
      "********": 464,
      "stdc": 465,
      "Ġtr": 466,
      "Ġnode": 467,
      "ĠĠĠĠĠĠĠĠĠĠĠĠ": 468,
      "Ġ'": 469,
      "ast": 470,
      "ub": 471,
      "qu": 472,
      "},": 473,
      "unction": 474,
      "res": 475,
      "rand": 476,
      "exp": 477,
      "ult": 478,
      "back": 479,
      "Ġh": 480,
      "oint": 481,
      "Ġbool": 482,
      "Ġ[": 483,
      "return": 484,
      "],": 485,
      "Ġth": 486,
      "val": 487,
      "================": 488,
      "Ġex": 489,
      "min": 490,
      "tp": 491,
      "))": 492,
      "ĠG": 493,
      "\";": 494,
      "lo": 495,
      "line": 496,
      "Ġ&&": 497,
      "raph": 498,
      "ĠR": 499,
      "Ġstart": 500,
      "ve": 501,
      "ver": 502,
      "Ġtrue": 503,
      "++){": 504,
      "Ġco": 505,
      "])": 506,
      "Ġbe": 507,
      "~~": 508,
      "Ġ4": 509,
      "ind": 510,
      "Ġend": 511,
      "Ġ+=": 512,
      "ree": 513,
      "Ġnumber": 514,
      "..": 515,
      "]);": 516,
      "push": 517,
      "Ġconstexp": 518,
      "Ġconstexpr": 519,
      ").": 520,
      "Ġon": 521,
      "Ġit": 522,
      "all": 523,
      "put": 524,
      "ĠB": 525,
      "Ġ!": 526,
      "ĠIN": 527,
      "as": 528,
      "Ġun": 529,
      "Ġ5": 530,
      "ithm": 531,
      "ĠF": 532,
      "if": 533,
      "Ġmin": 534,
      "per": 535,
      "Ġinline": 536,
      "gor": 537,
      "(\"%": 538,
      "gorithm": 539,
      "ix": 540,
      "ĠL": 541,
      "pt": 542,
      "ame": 543,
      "ft": 544,
      "ord": 545,
      "Ġcl": 546,
      "Ġ|": 547,
      "string": 548,
      "irst": 549,
      "Ġmat": 550,
      "Ġ>=": 551,
      "returns": 552,
      "Ġde": 553,
      "ĠINF": 554,
      "ip": 555,
      "Ġarray": 556,
      "ta": 557,
      "Ġfunction": 558,
      "start": 559,
      "Ġ6": 560,
      "sed": 561,
      "Ġmint": 562,
      "ata": 563,
      "cd": 564,
      "egin": 565,
      "};": 566,
      "++;": 567,
      "Ġ!=": 568,
      "Ġclass": 569,
      "ĠD": 570,
      "LL": 571,
      "atic": 572,
      "Ġpair": 573,
      "Ġsort": 574,
      "Ġsize": 575,
      "array": 576,
      "ru": 577,
      "99": 578,
      "ĠĠĠĠĠĠĠĠĠĠĠĠĠĠĠĠĠĠĠ": 579,
      "ck": 580,
      "Ġal": 581,
      "dex": 582,
      "Ġsc": 583,
      "rint": 584,
      "//": 585,
      "op": 586,
      "begin": 587,
      "rent": 588,
      "http": 589,
      "://": 590,
      "(),": 591,
      "Ġstring": 592,
      ">;": 593,
      "Ġ||": 594,
      "ey": 595,
      "10": 596,
      "https": 597,
      "Ġsum": 598,
      "ight": 599,
      "](": 600,
      "auto": 601,
      "wi": 602,
      "Ġendl": 603,
      "Ġfalse": 604,
      "35": 605,
      "32": 606,
      "ost": 607,
      "Ġq": 608,
      "Ġall": 609,
      "ruct": 610,
      "Ġstatic": 611,
      "ext": 612,
      "ime": 613,
      "typ": 614,
      "Ġcur": 615,
      "rom": 616,
      "ĠĠĠĠĠĠĠĠĠĠĠĠĠ": 617,
      "ected": 618,
      "Ġgcd": 619,
      "cod": 620,
      "Ġvalue": 621,
      "ĠE": 622,
      "Ġelement": 623,
      "false": 624,
      "dist": 625,
      "Ġresult": 626,
      "coder": 627,
      "test": 628,
      "<<\"": 629,
      "Ġ((": 630,
      "cond": 631,
      "Ġprint": 632,
      "arch": 633,
      "Ġfix": 634,
      "Ġne": 635,
      "ill": 636,
      "mplement": 637,
      "Ġmt": 638,
      "wik": 639,
      "Ġscan": 640,
      "ull": 641,
      "ĠPair": 642,
      "nd": 643,
      "arr": 644,
      "Ġad": 645,
      "Ġmodint": 646,
      "ename": 647,
      "wap": 648,
      "ter": 649,
      ">(": 650,
      "ĠThe": 651,
      "Ġscanf": 652,
      "cur": 653,
      "his": 654,
      "left": 655,
      "Ġarr": 656,
      "Ġpow": 657,
      "Ġwith": 658,
      "Ġat": 659,
      "ution": 660,
      "maxN": 661,
      "double": 662,
      "ations": 663,
      "ak": 664,
      "ans": 665,
      "ia": 666,
      "Ġ?": 667,
      "mat": 668,
      "Ġfast": 669,
      "--;": 670,
      "Ġdp": 671,
      "Ġthat": 672,
      "ive": 673,
      "read": 674,
      "****************": 675,
      "oot": 676,
      "sert": 677,
      "Ġtyp": 678,
      "const": 679,
      "15": 680,
      "Ġexp": 681,
      "ab": 682,
      "te": 683,
      "act": 684,
      "ĠĠĠĠĠ": 685,
      "ign": 686,
      "Ġcomp": 687,
      "Ġalgorithm": 688,
      "ity": 689,
      "ial": 690,
      "orm": 691,
      "ces": 692,
      "typename": 693,
      "Ġpoint": 694,
      "rix": 695,
      "Ġroot": 696,
      "Ġuint": 697,
      "Ġ\";": 698,
      "Ġswap": 699,
      "Ġfrom": 700,
      "Ġ};": 701,
      "ly": 702,
      "Ġgraph": 703,
      "},{": 704,
      "len": 705,
      "Ġed": 706,
      "ld": 707,
      "Ġ10": 708,
      "heck": 709,
      "order": 710,
      "ream": 711,
      "(){": 712,
      "Ġare": 713,
      "Ġpro": 714,
      "la": 715,
      "Ġimplement": 716,
      "set": 717,
      "Ġwe": 718,
      "~~~~": 719,
      "com": 720,
      "ĠK": 721,
      "Ġpos": 722,
      "Ġfastread": 723,
      "14": 724,
      "uint": 725,
      "Ġ>>=": 726,
      "--)": 727,
      "first": 728,
      "red": 729,
      "ary": 730,
      "num": 731,
      "Ġchar": 732,
      "fi": 733,
      "Ġrand": 734,
      "Ġdiv": 735,
      "ount": 736,
      "ĠQ": 737,
      "Ġnew": 738,
      "node": 739,
      "sum": 740,
      "Ġlo": 741,
      "Ġoper": 742,
      "Ġtype": 743,
      "et": 744,
      "Ġdist": 745,
      "cin": 746,
      "ĠO": 747,
      "Ġnot": 748,
      "co": 749,
      "ash": 750,
      "Ġ7": 751,
      "gth": 752,
      "second": 753,
      "pro": 754,
      "yn": 755,
      "24": 756,
      "Ġas": 757,
      "pos": 758,
      "ULL": 759,
      "low": 760,
      "Ġ\"\\": 761,
      "Ġsub": 762,
      "Ġdata": 763,
      "100": 764,
      "37": 765,
      "sort": 766,
      "ound": 767,
      "quer": 768,
      "Ġstruct": 769,
      "Ġprintf": 770,
      "ator": 771,
      "rib": 772,
      "Ġor": 773,
      "ange": 774,
      "hor": 775,
      "Test": 776,
      "ptr": 777,
      "Ġcase": 778,
      "Node": 779,
      "xt": 780,
      "10000": 781,
      "assed": 782,
      "26": 783,
      "me": 784,
      "ision": 785,
      "ition": 786,
      "ple": 787,
      "Ġhe": 788,
      "Ġfind": 789,
      "Ġindex": 790,
      "89": 791,
      "Ġkey": 792,
      "ain": 793,
      "ers": 794,
      "Ġ`": 795,
      "mod": 796,
      "ges": 797,
      "ĠV": 798,
      "Ġmp": 799,
      "cr": 800,
      "us": 801,
      "Ġ/=": 802,
      "Ġpre": 803,
      "Ġup": 804,
      "ty": 805,
      "Ġlist": 806,
      "uthor": 807,
      "Ġ///<": 808,
      "igned": 809,
      "ie": 810,
      "ach": 811,
      "79": 812,
      "ueue": 813,
      "ĠĠĠĠĠĠ": 814,
      "ĠW": 815,
      "org": 816,
      "../": 817,
      "ribution": 818,
      "\");": 819,
      "cm": 820,
      "Ġby": 821,
      "====================": 822,
      "ostream": 823,
      "mpty": 824,
      "ĠU": 825,
      "Ġ_": 826,
      "dge": 827,
      "of": 828,
      "ĠH": 829,
      "Ġ=================": 830,
      "===": 831,
      "=======================": 832,
      "Ġ========================================": 833,
      "Ġmatrix": 834,
      "ep": 835,
      "ĠNode": 836,
      "reak": 837,
      "imum": 838,
      "ink": 839,
      "ĠTest": 840,
      "ĠGraph": 841,
      "fs": 842,
      "());": 843,
      "cision": 844,
      "Ġcheck": 845,
      "signed": 846,
      "Ġset": 847,
      "iven": 848,
      "rep": 849,
      "Ġtree": 850,
      "ĠX": 851,
      "distribution": 852,
      "verse": 853,
      "Ġcnt": 854,
      "Ġchmin": 855,
      "man": 856,
      "Ġcurrent": 857,
      "em": 858,
      "Ġexpected": 859,
      "Ġinput": 860,
      "ies": 861,
      "atcoder": 862,
      "Ġbreak": 863,
      "Ġsol": 864,
      "())": 865,
      "edia": 866,
      "Ġchmax": 867,
      "io": 868,
      "Ġ/*": 869,
      "iform": 870,
      "ore": 871,
      "recision": 872,
      "ĠRa": 873,
      "Ġ8": 874,
      "ipedia": 875,
      "able": 876,
      "iostream": 877,
      "ĠnC": 878,
      "ther": 879,
      "199": 880,
      "ĠIn": 881,
      "ES": 882,
      "ance": 883,
      "lf": 884,
      "Ġull": 885,
      "Ġunsigned": 886,
      "Ġ9": 887,
      "00007": 888,
      ")(": 889,
      "lic": 890,
      "Ġlcm": 891,
      "19937": 892,
      "In": 893,
      "ues": 894,
      "Ġsu": 895,
      "ĠPI": 896,
      "Ġuniform": 897,
      "12": 898,
      "cle": 899,
      "Ġpat": 900,
      "Ġsh": 901,
      "root": 902,
      "ĠINFL": 903,
      "Ġlen": 904,
      "435": 905,
      "mt": 906,
      "our": 907,
      "998": 908,
      "ĠnCk": 909,
      "Ġrrep": 910,
      "Ġfixed": 911,
      "159": 912,
      "Ġpri": 913,
      "tprecision": 914,
      "535": 915,
      "base": 916,
      "wiki": 917,
      "Ġ60": 918,
      "24435": 919,
      "seed": 920,
      "Ġseed": 921,
      "wikipedia": 922,
      "Ġatcoder": 923,
      "14159": 924,
      "Ġtypedef": 925,
      "file": 926,
      "99824435": 927,
      "1415926": 928,
      "998244353": 929,
      "wo": 930,
      "inary": 931,
      "Ġsetprecision": 932,
      "1000000007": 933,
      "gr": 934,
      "Ġinit": 935,
      "8979": 936,
      "5358979": 937,
      "14159265358979": 938,
      "Ġfirst": 939,
      "Ġpush": 940,
      "Ġlld": 941,
      "Ġout": 942,
      "ypt": 943,
      "rig": 944,
      "ard": 945,
      "Ġvert": 946,
      "\"<<": 947,
      "')": 948,
      "Ġleft": 949,
      "Ġcan": 950,
      "crypt": 951,
      "namespace": 952,
      "Ġthis": 953,
      "Ġsz": 954,
      "tr": 955,
      "OD": 956,
      "pp": 957,
      "insert": 958,
      "cess": 959,
      "ide": 960,
      "lex": 961,
      "Ġgiven": 962,
      "Ġwhich": 963,
      "ave": 964,
      "with": 965,
      "Ġdfs": 966,
      ">>;": 967,
      "index": 968,
      "str": 969,
      "Ġrow": 970,
      "tree": 971,
      "Ġ++": 972,
      "ample": 973,
      "Ġhi": 974,
      "lag": 975,
      "right": 976,
      "Ġadj": 977,
      "Ġsearch": 978,
      "Ġright": 979,
      "ĠĠĠĠĠĠĠĠĠĠĠĠĠĠĠĠĠĠĠĠĠĠĠĠĠĠĠĠĠĠĠĠ": 980,
      "Ġ20": 981,
      "data": 982,
      "add": 983,
      "query": 984,
      "assert": 985,
      "ithub": 986,
      "github": 987,
      "Ġstr": 988,
      "((": 989,
      "ĠFunction": 990,
      "Ġtime": 991,
      "date": 992,
      "key": 993,
      "next": 994,
      "Ġz": 995,
      "stdio": 996,
      "ils": 997,
      "gram": 998,
      "ove": 999,
      "});": 1000,
      "Ġ(!": 1001,
      "Ġinteg": 1002,
      "ios": 1003,
      "tie": 1004,
      "ĠSt": 1005,
      "ĠPoint": 1006,
      "resent": 1007,
      "thod": 1008,
      "ync": 1009,
      "({": 1010,
      "comp": 1011,
      "case": 1012,
      "ĠMOD": 1013,
      "vers": 1014,
      "Ġvalues": 1015,
      "Ġadd": 1016,
      "value": 1017,
      "NULL": 1018,
      "author": 1019,
      "list": 1020,
      "Ġlast": 1021,
      "tails": 1022,
      "are": 1023,
      "Ġvis": 1024,
      "20": 1025,
      "arent": 1026,
      "ant": 1027,
      "Ġ\"../": 1028,
      ")++)": 1029,
      "Ġtwo": 1030,
      "length": 1031,
      "hir": 1032,
      "Ġsync": 1033,
      "char": 1034,
      "cassert": 1035,
      "gh": 1036,
      "Ġ100": 1037,
      "Ġwhe": 1038,
      "ullptr": 1039,
      "IN": 1040,
      "row": 1041,
      "flo": 1042,
      "Ġ$": 1043,
      "details": 1044,
      "ĠMain": 1045,
      "ĠmaxN": 1046,
      "Ġid": 1047,
      "age": 1048,
      "ry": 1049,
      "Ġps": 1050,
      "Ġcost": 1051,
      "\")": 1052,
      "Ġlow": 1053,
      "Ġwill": 1054,
      "~~~~~~~~": 1055,
      "ron": 1056,
      "Ġstack": 1057,
      "oly": 1058,
      "Ġcol": 1059,
      "search": 1060,
      "ache": 1061,
      "tain": 1062,
      "bit": 1063,
      "...": 1064,
      "]){": 1065,
      "Ġtra": 1066,
      "Ġpb": 1067,
      "nter": 1068,
      "(!": 1069,
      "Ġelements": 1070,
      "ps": 1071,
      "lld": 1072,
      "Ġpassed": 1073,
      "Ġab": 1074,
      "Ġsorting": 1075,
      "sub": 1076,
      "ĠIf": 1077,
      "Ġimplementations": 1078,
      "number": 1079,
      "Ġoperations": 1080,
      "';": 1081,
      "lete": 1082,
      "--){": 1083,
      "ren": 1084,
      "algorithm": 1085,
      "11": 1086,
      "Ġle": 1087,
      "ative": 1088,
      "Ġtests": 1089,
      "Ġedges": 1090,
      "ence": 1091,
      "ĠSe": 1092,
      "ption": 1093,
      "fix": 1094,
      "alc": 1095,
      "ated": 1096,
      "Ġused": 1097,
      "25": 1098,
      "ures": 1099,
      "to": 1100,
      "ke": 1101,
      "Ġpoints": 1102,
      "ay": 1103,
      "ĠĠĠĠĠĠĠĠĠĠ": 1104,
      "Ġother": 1105,
      "pair": 1106,
      "ib": 1107,
      "math": 1108,
      "]]": 1109,
      "tin": 1110,
      "Ġtext": 1111,
      "********************************": 1112,
      "Ġme": 1113,
      "ĠĠĠĠĠĠĠĠĠĠĠĠĠĠĠĠĠĠĠĠĠĠĠ": 1114,
      "ĠThis": 1115,
      "ure": 1116,
      "Ġrange": 1117,
      "Ġhash": 1118,
      "sorted": 1119,
      "onent": 1120,
      "err": 1121,
      "blem": 1122,
      "Ġimplementation": 1123,
      "16": 1124,
      "pri": 1125,
      "tern": 1126,
      "point": 1127,
      "valarray": 1128,
      "Ġupdate": 1129,
      "ource": 1130,
      "edge": 1131,
      "ĠCo": 1132,
      "AX": 1133,
      "input": 1134,
      "Ġce": 1135,
      "Ġrandom": 1136,
      "ci": 1137,
      "actor": 1138,
      "ates": 1139,
      "Edge": 1140,
      "dd": 1141,
      "sz": 1142,
      "Ġ-=": 1143,
      "Ġen": 1144,
      "'s": 1145,
      "ii": 1146,
      "Ġnext": 1147,
      "ices": 1148,
      "Ġsorted": 1149,
      "Ġlog": 1150,
      "log": 1151,
      "Ġcharact": 1152,
      "count": 1153,
      "find": 1154,
      "pre": 1155,
      "Ġflag": 1156,
      "ded": 1157,
      "Ġrun": 1158,
      "Ġceil": 1159,
      "col": 1160,
      "Ġeach": 1161,
      "ĠRe": 1162,
      "Ġnullptr": 1163,
      "empty": 1164,
      "text": 1165,
      "gest": 1166,
      "Ġnodes": 1167,
      "ultip": 1168,
      "fe": 1169,
      "gon": 1170,
      "Ġcount": 1171,
      "ute": 1172,
      "Ġoperator": 1173,
      "ual": 1174,
      "Ġbit": 1175,
      "ick": 1176,
      "Ġthen": 1177,
      "ront": 1178,
      "ose": 1179,
      "Ġdo": 1180,
      "Ġexit": 1181,
      "abs": 1182,
      "one": 1183,
      "mall": 1184,
      "versal": 1185,
      "cre": 1186,
      "Ġmid": 1187,
      "Ġcontin": 1188,
      "Ġhave": 1189,
      "que": 1190,
      "dp": 1191,
      "ming": 1192,
      "Ġvi": 1193,
      "Ġline": 1194,
      "Ġmath": 1195,
      "cy": 1196,
      ")--)": 1197,
      "Ġquery": 1198,
      "result": 1199,
      "pop": 1200,
      "Ġinter": 1201,
      "ccess": 1202,
      "Ġds": 1203,
      "Ġinsert": 1204,
      "Sort": 1205,
      "NO": 1206,
      "ian": 1207,
      "vis": 1208,
      "Ġtri": 1209,
      "curs": 1210,
      "ST": 1211,
      "Ġtable": 1212,
      "amic": 1213,
      "Ġlength": 1214,
      "mill": 1215,
      "ular": 1216,
      "Ġiter": 1217,
      "<=": 1218,
      "ks": 1219,
      "ĠĠĠĠĠĠĠĠĠĠĠĠĠĠ": 1220,
      "Ġedge": 1221,
      "ail": 1222,
      "Ġlim": 1223,
      "ĠComp": 1224,
      "form": 1225,
      "pra": 1226,
      "wer": 1227,
      "Ġcontain": 1228,
      "inked": 1229,
      "Ġwhere": 1230,
      "gment": 1231,
      "ne": 1232,
      "Ġbu": 1233,
      "Ġcontinue": 1234,
      "Ġpar": 1235,
      "rid": 1236,
      "up": 1237,
      "ener": 1238,
      "Ġvar": 1239,
      "adj": 1240,
      "temp": 1241,
      "ynamic": 1242,
      "Ġvertex": 1243,
      "Bis": 1244,
      "ahir": 1245,
      "gma": 1246,
      "hman": 1247,
      "him": 1248,
      "hild": 1249,
      "ould": 1250,
      "ĠFor": 1251,
      "Ġdelete": 1252,
      "ĠEdge": 1253,
      "ĠRahman": 1254,
      "millahir": 1255,
      "Bismillahir": 1256,
      "ĠRahmanir": 1257,
      "ĠRahim": 1258,
      "Ġidx": 1259,
      "pragma": 1260,
      "vi": 1261,
      "Ġone": 1262,
      "tparam": 1263,
      "ĠĠĠĠčĊ": 1264,
      "ses": 1265,
      "Ġequ": 1266,
      "Ġtot": 1267,
      "idx": 1268,
      "Ġinitial": 1269,
      "YES": 1270,
      "rect": 1271,
      "expected": 1272,
      "',": 1273,
      "ater": 1274,
      "Ġnumbers": 1275,
      "tra": 1276,
      "}\\": 1277,
      "ited": 1278,
      "gle": 1279,
      "we": 1280,
      "erge": 1281,
      "ating": 1282,
      "quence": 1283,
      "cri": 1284,
      "ven": 1285,
      "ĠNULL": 1286,
      "Ġalgorithms": 1287,
      "lgorithm": 1288,
      "time": 1289,
      "Ġbase": 1290,
      "Ġsecond": 1291,
      "Ġonce": 1292,
      "tent": 1293,
      "Ġstep": 1294,
      "cnt": 1295,
      "lace": 1296,
      "pth": 1297,
      "ust": 1298,
      "itTest": 1299,
      "ical": 1300,
      "ublic": 1301,
      "SE": 1302,
      "ĠY": 1303,
      "Ġpath": 1304,
      "ec": 1305,
      "top": 1306,
      "ero": 1307,
      "Ġrepresent": 1308,
      "content": 1309,
      "graph": 1310,
      "now": 1311,
      "ww": 1312,
      "lay": 1313,
      "rray": 1314,
      "Ġcalc": 1315,
      "ceil": 1316,
      "Ġqueue": 1317,
      "ning": 1318,
      "pow": 1319,
      "Ġ(*": 1320,
      "Ġno": 1321,
      "Ġminimum": 1322,
      "gramming": 1323,
      "olygon": 1324,
      "cription": 1325,
      "Enter": 1326,
      "[]": 1327,
      "oth": 1328,
      "hash": 1329,
      "crypted": 1330,
      ")[": 1331,
      "Tree": 1332,
      "fre": 1333,
      "si": 1334,
      "ress": 1335,
      "Ġcor": 1336,
      "Ġpublic": 1337,
      "Ġinteger": 1338,
      "ãģ": 1339,
      "Ġself": 1340,
      "List": 1341,
      "struct": 1342,
      "Ġper": 1343,
      "Ġsp": 1344,
      "EST": 1345,
      "St": 1346,
      "ĠTime": 1347,
      "Ġword": 1348,
      "ility": 1349,
      "Ġhas": 1350,
      "Ġvertices": 1351,
      "Ġfound": 1352,
      "Ġ12": 1353,
      "map": 1354,
      "omet": 1355,
      "floor": 1356,
      "cursive": 1357,
      "qr": 1358,
      "30": 1359,
      "onac": 1360,
      "Ġrem": 1361,
      "Ġlar": 1362,
      "Ġdis": 1363,
      "onacci": 1364,
      "18": 1365,
      "vert": 1366,
      "Ġflo": 1367,
      "Ġreturns": 1368,
      "Ġoutput": 1369,
      "arget": 1370,
      "17": 1371,
      "50": 1372,
      "----": 1373,
      "open": 1374,
      "type": 1375,
      "Ġpattern": 1376,
      "Ġtotal": 1377,
      "MAX": 1378,
      "Se": 1379,
      "]++;": 1380,
      "Ġmap": 1381,
      "fib": 1382,
      "Ġcharacter": 1383,
      "+=": 1384,
      "ov": 1385,
      "Ġbinary": 1386,
      "Ġ->": 1387,
      "iable": 1388,
      "cstd": 1389,
      "cast": 1390,
      "Ġpart": 1391,
      "escription": 1392,
      "IT": 1393,
      "inal": 1394,
      "ory": 1395,
      "Ġcom": 1396,
      "lock": 1397,
      "Ġmethod": 1398,
      "34": 1399,
      ">::": 1400,
      "Ġ^": 1401,
      "Ġcre": 1402,
      "Ġsmall": 1403,
      "ĠAlgorithm": 1404,
      "av": 1405,
      "ities": 1406,
      "Ġob": 1407,
      "old": 1408,
      "Ġ\"../../": 1409,
      "hed": 1410,
      "19": 1411,
      "Ġdef": 1412,
      "Ġmultip": 1413,
      "ite": 1414,
      "geomet": 1415,
      "ĠAuthor": 1416,
      "Ġthan": 1417,
      "ĠUn": 1418,
      "SI": 1419,
      "el": 1420,
      "hen": 1421,
      "queue": 1422,
      "zz": 1423,
      "ching": 1424,
      ")\\": 1425,
      ">&": 1426,
      "Point": 1427,
      "ient": 1428,
      "Ġparent": 1429,
      "umber": 1430,
      "sha": 1431,
      "Ġonly": 1432,
      "ĠDescription": 1433,
      "Ġcy": 1434,
      "atus": 1435,
      "qrt": 1436,
      "(&": 1437,
      "mon": 1438,
      "play": 1439,
      "rd": 1440,
      "Ġpt": 1441,
      "Ġdif": 1442,
      "ulation": 1443,
      "(-": 1444,
      "sol": 1445,
      "uzz": 1446,
      "ĠSelf": 1447,
      "uzzle": 1448,
      "Ġempty": 1449,
      "ĠGrid": 1450,
      "Ġweight": 1451,
      "Ex": 1452,
      "]=": 1453,
      "flow": 1454,
      "mid": 1455,
      "erase": 1456,
      "ZE": 1457,
      "ff": 1458,
      "Ġany": 1459,
      "Ġinv": 1460,
      "igits": 1461,
      "Min": 1462,
      "front": 1463,
      "stream": 1464,
      "Ġcache": 1465,
      "Ġmem": 1466,
      "Ġstate": 1467,
      "oss": 1468,
      "Ġarg": 1469,
      "Ġhead": 1470,
      "Ġprime": 1471,
      "Pow": 1472,
      "Ġpr": 1473,
      "Ġposition": 1474,
      "Ġsuccess": 1475,
      "rence": 1476,
      "Ġvariable": 1477,
      "bool": 1478,
      "Ġ{{": 1479,
      "Ġsame": 1480,
      "ĠDate": 1481,
      "TEST": 1482,
      "Ġorder": 1483,
      "ense": 1484,
      "clo": 1485,
      "imes": 1486,
      "sage": 1487,
      "Ġbest": 1488,
      "Ġmaximum": 1489,
      "ĠStatus": 1490,
      "Ġequal": 1491,
      "Ġinto": 1492,
      "ĠIO": 1493,
      "Ġitem": 1494,
      "ally": 1495,
      "Ġdistance": 1496,
      "ulate": 1497,
      "ãĤ": 1498,
      "arg": 1499,
      "edian": 1500,
      "icense": 1501,
      "ĠLicense": 1502,
      ")/": 1503,
      "link": 1504,
      "stack": 1505,
      "Ġcap": 1506,
      "Ġgre": 1507,
      "programming": 1508,
      ">,": 1509,
      "cc": 1510,
      "iph": 1511,
      "Ġfill": 1512,
      "Ġmerge": 1513,
      "000": 1514,
      "ĠSource": 1515,
      "ivot": 1516,
      "\",\"": 1517,
      "Ġbet": 1518,
      "mplementation": 1519,
      "code": 1520,
      "for": 1521,
      "parent": 1522,
      "Ġfre": 1523,
      "Ġcomplex": 1524,
      "queries": 1525,
      "Ġsolve": 1526,
      "Size": 1527,
      "Ġfactor": 1528,
      "ĠĠĠĠĠĠĠĠĠ": 1529,
      "hift": 1530,
      "ipulation": 1531,
      "Ġsolution": 1532,
      "~~~~~~~~~~~~~~~~": 1533,
      "Ġret": 1534,
      "ild": 1535,
      "bound": 1536,
      "ius": 1537,
      "not": 1538,
      "Ġ15": 1539,
      "Ġdi": 1540,
      "Ġwor": 1541,
      "ĠMat": 1542,
      "ĠReturn": 1543,
      "!\"": 1544,
      "ile": 1545,
      "Ġhigh": 1546,
      "clock": 1547,
      "div": 1548,
      "lim": 1549,
      "Ġap": 1550,
      "Ġgener": 1551,
      "ĠCC": 1552,
      "Ġcurr": 1553,
      "let": 1554,
      "iter": 1555,
      "acity": 1556,
      "Ġcases": 1557,
      "method": 1558,
      "cstdint": 1559,
      "imp": 1560,
      "ok": 1561,
      "su": 1562,
      "Ġsto": 1563,
      "Ġback": 1564,
      "Ġsample": 1565,
      "ircle": 1566,
      "table": 1567,
      "56": 1568,
      "Of": 1569,
      "ĠIt": 1570,
      "fter": 1571,
      "ĠEx": 1572,
      "Ġvisited": 1573,
      "]-": 1574,
      "ag": 1575,
      "Ġtak": 1576,
      "Ġcall": 1577,
      "itial": 1578,
      "Ġtop": 1579,
      "ice": 1580,
      "Ġits": 1581,
      "Ġabs": 1582,
      "Ġfloat": 1583,
      "]+": 1584,
      "mes": 1585,
      "oc": 1586,
      "pii": 1587,
      "Ġtarget": 1588,
      "ency": 1589,
      "ous": 1590,
      "current": 1591,
      "Dist": 1592,
      "ca": 1593,
      "range": 1594,
      "Ġent": 1595,
      "Ġhttps": 1596,
      "Ġ});": 1597,
      "indow": 1598,
      "Ġpointer": 1599,
      "!\\": 1600,
      "27": 1601,
      "]==": 1602,
      "Ġ\"<<": 1603,
      "igh": 1604,
      "igit": 1605,
      "ĠCon": 1606,
      "addEdge": 1607,
      "Ġinterval": 1608,
      "ault": 1609,
      "Ġchild": 1610,
      "ĠSort": 1611,
      "li": 1612,
      "utput": 1613,
      "Ġinverse": 1614,
      "ĠmodPow": 1615,
      "vel": 1616,
      "Ġcycle": 1617,
      "ER": 1618,
      "ug": 1619,
      "Ġqu": 1620,
      "erical": 1621,
      "ype": 1622,
      "Ġque": 1623,
      "Ġproblem": 1624,
      "manipulation": 1625,
      "256": 1626,
      "Ġappro": 1627,
      "All": 1628,
      "Ġcent": 1629,
      "Ġ16": 1630,
      "Ġbo": 1631,
      "Ġover": 1632,
      "Ġlower": 1633,
      "MP": 1634,
      "ens": 1635,
      "endif": 1636,
      "ween": 1637,
      "Ġbetween": 1638,
      "Case": 1639,
      "ax": 1640,
      "bab": 1641,
      "Ġrad": 1642,
      "ĠImplementation": 1643,
      "wise": 1644,
      "ĠFunctions": 1645,
      "shared": 1646,
      "CT": 1647,
      "txt": 1648,
      "Ġ{}": 1649,
      "section": 1650,
      "Ġthere": 1651,
      "Ġsegment": 1652,
      "true": 1653,
      ")));": 1654,
      "so": 1655,
      "Ġciph": 1656,
      "ongest": 1657,
      "Ġreverse": 1658,
      "util": 1659,
      "Ġdynamic": 1660,
      "Ġ[&": 1661,
      "Ġprefix": 1662,
      "Exp": 1663,
      "ward": 1664,
      "acking": 1665,
      "float": 1666,
      "Ġobj": 1667,
      "ighb": 1668,
      "80": 1669,
      "87": 1670,
      "flag": 1671,
      "vex": 1672,
      "Ġstore": 1673,
      "ank": 1674,
      "ĠĠĠĠĠĠĠĠĠĠĠĠĠĠĠĠĠ": 1675,
      "Ġheight": 1676,
      "AS": 1677,
      "Array": 1678,
      "Queue": 1679,
      "ors": 1680,
      "Ġstdin": 1681,
      "ĠPro": 1682,
      "very": 1683,
      "SIZE": 1684,
      "cpp": 1685,
      "ds": 1686,
      "Ġ(\"": 1687,
      "ions": 1688,
      "ome": 1689,
      "ape": 1690,
      ">({": 1691,
      "geometry": 1692,
      "29": 1693,
      "36": 1694,
      "long": 1695,
      "Ġ\",": 1696,
      "Ġpower": 1697,
      "tracking": 1698,
      "ĠComplex": 1699,
      "pat": 1700,
      "rection": 1701,
      "Ġshift": 1702,
      "main": 1703,
      "bo": 1704,
      "emp": 1705,
      "ser": 1706,
      "Ġincre": 1707,
      "ument": 1708,
      "Ġitr": 1709,
      "Ġshould": 1710,
      "eks": 1711,
      "pb": 1712,
      "Ġpii": 1713,
      "ĠDe": 1714,
      "Ġcomput": 1715,
      "utilities": 1716,
      "Ġ{'": 1717,
      "Ġso": 1718,
      "make": 1719,
      "Ġexist": 1720,
      "problem": 1721,
      "ibonacci": 1722,
      "Ġcorrect": 1723,
      "Ġlarge": 1724,
      "110": 1725,
      "ĠĠĠčĊ": 1726,
      "Ġ10000": 1727,
      "Ġeven": 1728,
      "Ġdepth": 1729,
      "Ġ__": 1730,
      "Ġrows": 1731,
      "Ġremove": 1732,
      "LE": 1733,
      "pend": 1734,
      "}};": 1735,
      "oring": 1736,
      "Ġrec": 1737,
      "Ġ11": 1738,
      "Ġlinked": 1739,
      "Ġodd": 1740,
      "Ġmake": 1741,
      "ify": 1742,
      "cross": 1743,
      "Ġzero": 1744,
      "84": 1745,
      "^{": 1746,
      "ict": 1747,
      "ima": 1748,
      "dered": 1749,
      "Ġpivot": 1750,
      "Ġuse": 1751,
      "Ġold": 1752,
      "Ġevery": 1753,
      "Ġanswer": 1754,
      "ĠCheck": 1755,
      "vec": 1756,
      "ĠFind": 1757,
      "prime": 1758,
      "freopen": 1759,
      "39": 1760,
      "AT": 1761,
      "uple": 1762,
      "ined": 1763,
      "Ġfail": 1764,
      "ang": 1765,
      "Ġop": 1766,
      "Ġinf": 1767,
      "complex": 1768,
      "54": 1769,
      "Un": 1770,
      "passed": 1771,
      "geeks": 1772,
      "irc": 1773,
      "valu": 1774,
      "Ġtrie": 1775,
      "ĠUnitTest": 1776,
      "The": 1777,
      "ral": 1778,
      "Ġ30": 1779,
      "hird": 1780,
      "cs": 1781,
      "ho": 1782,
      "swap": 1783,
      "}{": 1784,
      "Ġafter": 1785,
      "Ġdy": 1786,
      "idth": 1787,
      "Tests": 1788,
      "onents": 1789,
      "emplace": 1790,
      "Inter": 1791,
      "Ġ14": 1792,
      "valid": 1793,
      "lower": 1794,
      "ays": 1795,
      "new": 1796,
      "structures": 1797,
      "33": 1798,
      "fer": 1799,
      "oll": 1800,
      "sk": 1801,
      "ĠĠčĊ": 1802,
      "Ġpresent": 1803,
      "hes": 1804,
      "().": 1805,
      "ĠTree": 1806,
      "matrix": 1807,
      "Ġtypename": 1808,
      "'){": 1809,
      "No": 1810,
      "gn": 1811,
      "tri": 1812,
      "ordered": 1813,
      "sequence": 1814,
      "arning": 1815,
      "angle": 1816,
      "omial": 1817,
      "random": 1818,
      "Ġexample": 1819,
      "ĠLine": 1820,
      "Ġcompute": 1821,
      "Ġwhether": 1822,
      "Ġtraversal": 1823,
      "Ġcontains": 1824,
      "other": 1825,
      "by": 1826,
      "Ġact": 1827,
      "alind": 1828,
      "ĠPrint": 1829,
      "qui": 1830,
      "bitset": 1831,
      "'},": 1832,
      "60": 1833,
      "UT": 1834,
      "cost": 1835,
      "jk": 1836,
      "nxt": 1837,
      "Ġ,": 1838,
      "Ġsome": 1839,
      "icient": 1840,
      "otate": 1841,
      "imeter": 1842,
      "Ġheap": 1843,
      "Ġbuild": 1844,
      "Search": 1845,
      "rou": 1846,
      "ins": 1847,
      "stra": 1848,
      "Ġman": 1849,
      "Ġsource": 1850,
      "ĠNumber": 1851,
      "Ġsequence": 1852,
      "quare": 1853,
      "ostorder": 1854,
      "www": 1855,
      "sible": 1856,
      "alindrom": 1857,
      "OR": 1858,
      "Ġcode": 1859,
      "cryption": 1860,
      "template": 1861,
      "nown": 1862,
      "Expected": 1863,
      "lta": 1864,
      "Ġmx": 1865,
      "ized": 1866,
      "uler": 1867,
      "aps": 1868,
      "ĠInsert": 1869,
      "ITY": 1870,
      "Ġsuccessf": 1871,
      "85": 1872,
      "Ord": 1873,
      "di": 1874,
      "ique": 1875,
      "nected": 1876,
      "vate": 1877,
      "void": 1878,
      "ãĥ": 1879,
      "Ġ~": 1880,
      "Ġqueries": 1881,
      "Ġbits": 1882,
      "Ġpa": 1883,
      "Ġpull": 1884,
      "Ġwindow": 1885,
      "******": 1886,
      "1000": 1887,
      "Ġdoes": 1888,
      "Ġcreate": 1889,
      "this": 1890,
      "tual": 1891,
      "inv": 1892,
      "Ġfac": 1893,
      "Ġblock": 1894,
      "itr": 1895,
      "edges": 1896,
      "irtual": 1897,
      "ĠPAS": 1898,
      "ĠAdd": 1899,
      "egative": 1900,
      "Ġ50": 1901,
      "Ġsizeof": 1902,
      "nodes": 1903,
      "Ġlimit": 1904,
      "Ġperform": 1905,
      "methods": 1906,
      "bability": 1907,
      "##": 1908,
      ">=": 1909,
      "Set": 1910,
      "og": 1911,
      "pper": 1912,
      "high": 1913,
      "Ġseg": 1914,
      "ĠMatrix": 1915,
      "imple": 1916,
      "!=": 1917,
      "Ġ64": 1918,
      "depth": 1919,
      "Ġnon": 1920,
      "Ġside": 1921,
      "Ġvirtual": 1922,
      "Ġgo": 1923,
      "Ġstarting": 1924,
      "pts": 1925,
      "core": 1926,
      "pendent": 1927,
      "'t": 1928,
      ")),": 1929,
      "22": 1930,
      "_{": 1931,
      "dot": 1932,
      "sp": 1933,
      "ved": 1934,
      "word": 1935,
      "Ġcircle": 1936,
      "Ġfp": 1937,
      "Ġflow": 1938,
      "Ġuser": 1939,
      "Ġdx": 1940,
      "tested": 1941,
      "\")[": 1942,
      "AN": 1943,
      "Puzzle": 1944,
      "Yes": 1945,
      "the": 1946,
      "Ġrequi": 1947,
      "Ġfe": 1948,
      "ala": 1949,
      "ĠAn": 1950,
      "Ġrepe": 1951,
      "ĠMAX": 1952,
      "ĠCase": 1953,
      "**************": 1954,
      "Ġprogram": 1955,
      "ĠInitial": 1956,
      "INITY": 1957,
      "****************************************************************": 1958,
      "Ġdisplay": 1959,
      "Ġcapacity": 1960,
      "Ġgreater": 1961,
      "******************************************************************************": 1962,
      "76": 1963,
      "Pro": 1964,
      "else": 1965,
      "ffix": 1966,
      "rc": 1967,
      "sqrt": 1968,
      "Ġ{};": 1969,
      "Ġbut": 1970,
      "Ġwas": 1971,
      "Ġalso": 1972,
      "abel": 1973,
      "Ġloop": 1974,
      "Order": 1975,
      "!\"<<": 1976,
      "bin": 1977,
      "cmath": 1978,
      "gre": 1979,
      "Ġfn": 1980,
      "Ġform": 1981,
      "ĠCre": 1982,
      "ructures": 1983,
      "redict": 1984,
      "lication": 1985,
      "Ġshape": 1986,
      "INT": 1987,
      "SED": 1988,
      "Ġfreq": 1989,
      "Ġciphers": 1990,
      "*(": 1991,
      "dis": 1992,
      "function": 1993,
      "Ġtmp": 1994,
      "anc": 1995,
      "Ġwhen": 1996,
      "odd": 1997,
      "Ġ32": 1998,
      "pha": 1999,
      "perator": 2000,
      "Ġapprox": 2001,
      "$.": 2002,
      "40": 2003,
      "88": 2004,
      "}},": 2005,
      "resize": 2006,
      "Ġrecursive": 2007,
      "Ġsave": 2008,
      "eff": 2009,
      "Ġexponent": 2010,
      "Ġsubset": 2011,
      "Ġupper": 2012,
      "Ġcalcul": 2013,
      "jkstra": 2014,
      "31": 2015,
      "rat": 2016,
      "sc": 2017,
      "seg": 2018,
      "amb": 2019,
      "Ġden": 2020,
      "Ġok": 2021,
      "imal": 2022,
      "Ġnumerical": 2023,
      "ĠINT": 2024,
      "opy": 2025,
      "Ġresultant": 2026,
      "Ġprocess": 2027,
      "Ġprobability": 2028,
      "Ġstructure": 2029,
      "Input": 2030,
      "Ġ1000": 2031,
      "actorial": 2032,
      "ĠReturns": 2033,
      "ĠPASSED": 2034,
      "digits": 2035,
      "lit": 2036,
      "side": 2037,
      "times": 2038,
      "alf": 2039,
      "Ġneed": 2040,
      "answer": 2041,
      "Ġcomplexity": 2042,
      "=(": 2043,
      "da": 2044,
      "fo": 2045,
      "gcd": 2046,
      "lip": 2047,
      "ob": 2048,
      "zero": 2049,
      "atures": 2050,
      "Ġmust": 2051,
      "odu": 2052,
      "Ġvectors": 2053,
      "Ġdecrypted": 2054,
      "ipart": 2055,
      "Ġsubtree": 2056,
      "Ġprivate": 2057,
      "Ġcharacters": 2058,
      "Ġentry": 2059,
      ",-": 2060,
      "=\"": 2061,
      "He": 2062,
      "]))": 2063,
      "}),": 2064,
      "Ġfoll": 2065,
      "()){": 2066,
      "Ġdigits": 2067,
      "Ġinorder": 2068,
      "Ġcho": 2069,
      "ĠBST": 2070,
      "Ġmatching": 2071,
      "abc": 2072,
      "Ġorig": 2073,
      "Index": 2074,
      "area": 2075,
      "Ġdefault": 2076,
      "ipartite": 2077,
      "Data": 2078,
      "Sum": 2079,
      "bu": 2080,
      "binary": 2081,
      "element": 2082,
      "fit": 2083,
      "naps": 2084,
      "itive": 2085,
      "ric": 2086,
      "ĠBinary": 2087,
      "Ġpossible": 2088,
      "Ġsublist": 2089,
      "Ġhere": 2090,
      "achine": 2091,
      "ĠWe": 2092,
      "licit": 2093,
      "Ġadjac": 2094,
      "Ġencrypted": 2095,
      "Stack": 2096,
      "Ġpartition": 2097,
      "Ġ^=": 2098,
      "Ġsmallest": 2099,
      "Ġdiffe": 2100,
      "Ġradius": 2101,
      "napsack": 2102,
      "eep": 2103,
      "zy": 2104,
      "Ġ.": 2105,
      "inorder": 2106,
      "atast": 2107,
      "lection": 2108,
      "ĠTo": 2109,
      "Ġevalu": 2110,
      "output": 2111,
      "Ġ26": 2112,
      "ĠArray": 2113,
      "estor": 2114,
      "unc": 2115,
      "ĠFirst": 2116,
      "Ġweights": 2117,
      "Ġmemory": 2118,
      "Ġstores": 2119,
      "Ġ[&](": 2120,
      "ambda": 2121,
      "cap": 2122,
      "has": 2123,
      "ik": 2124,
      "ns": 2125,
      "nullptr": 2126,
      "Ġcerr": 2127,
      "Ġstress": 2128,
      "Ġind": 2129,
      "ĠĠĠĠĠĠĠĠĠĠĠĠĠĠĠĠĠĠĠĠĠĠĠĠĠĠĠ": 2130,
      "ĠINFINITY": 2131,
      "distance": 2132,
      "prev": 2133,
      "Ġmultiply": 2134,
      "ircular": 2135,
      "86": 2136,
      ":\\": 2137,
      "EN": 2138,
      "Ne": 2139,
      "]].": 2140,
      "cerr": 2141,
      "from": 2142,
      "inter": 2143,
      "Ġaug": 2144,
      "Ġ**": 2145,
      "Ġ{-": 2146,
      "Ġremain": 2147,
      "Ġmore": 2148,
      "Ġ###": 2149,
      "ume": 2150,
      "Ġ23": 2151,
      "ĠSh": 2152,
      "ulo": 2153,
      "ortest": 2154,
      "perimeter": 2155,
      "ully": 2156,
      "ansform": 2157,
      "clear": 2158,
      "ĠSearch": 2159,
      "color": 2160,
      "Ġitems": 2161,
      "Ġrequired": 2162,
      "Ġapproxim": 2163,
      "oduct": 2164,
      "Ġfollow": 2165,
      "Con": 2166,
      "Count": 2167,
      "Graph": 2168,
      "LO": 2169,
      "Polygon": 2170,
      "dges": 2171,
      "hol": 2172,
      "most": 2173,
      "oi": 2174,
      "py": 2175,
      "score": 2176,
      "integ": 2177,
      "ority": 2178,
      "segment": 2179,
      "height": 2180,
      "Ġsquare": 2181,
      "Ġlink": 2182,
      "ĠSim": 2183,
      "indhol": 2184,
      "ifdef": 2185,
      "ĠData": 2186,
      "Ġdivide": 2187,
      "Ġprev": 2188,
      "Ġrepresentation": 2189,
      "Ġbacktracking": 2190,
      "indholm": 2191,
      "FS": 2192,
      "ID": 2193,
      "Max": 2194,
      "Number": 2195,
      "Passed": 2196,
      "datast": 2197,
      "phi": 2198,
      "state": 2199,
      "Ġreal": 2200,
      "Ġfront": 2201,
      "Ġmedian": 2202,
      "Ġra": 2203,
      "ĠList": 2204,
      "Ġstrings": 2205,
      "arry": 2206,
      "vious": 2207,
      "]=='": 2208,
      "alindrome": 2209,
      "Ġsuccessfully": 2210,
      "datastructures": 2211,
      "');": 2212,
      "23": 2213,
      "70": 2214,
      "Int": 2215,
      "Line": 2216,
      "Ġapp": 2217,
      "Ġmov": 2218,
      "Ġthem": 2219,
      "Ġdigit": 2220,
      "ĠPassed": 2221,
      "efore": 2222,
      "Ġhull": 2223,
      "ĠLindholm": 2224,
      "currence": 2225,
      "ĠOutput": 2226,
      "ieve": 2227,
      "Ġsolver": 2228,
      "visited": 2229,
      "Ġgenerate": 2230,
      "csv": 2231,
      "Ġactual": 2232,
      "ĠSimon": 2233,
      ")){": 2234,
      "HA": 2235,
      "UM": 2236,
      "child": 2237,
      "mm": 2238,
      "ng": 2239,
      "polygon": 2240,
      "use": 2241,
      "uff": 2242,
      "Ġdia": 2243,
      "Ġwant": 2244,
      "Ġyou": 2245,
      "olume": 2246,
      "Ġassign": 2247,
      "Ġ';": 2248,
      "Ġneighb": 2249,
      "ters": 2250,
      "Ġroots": 2251,
      "cycle": 2252,
      "Ġcalculate": 2253,
      "Ġquick": 2254,
      "/)": 2255,
      "21": 2256,
      "Re": 2257,
      "pon": 2258,
      "tuple": 2259,
      "{};": 2260,
      "ature": 2261,
      "Ġmes": 2262,
      "Ġsimple": 2263,
      "Ġwh": 2264,
      "istic": 2265,
      "ĠSI": 2266,
      "parse": 2267,
      "Ġthrow": 2268,
      "Ġsuch": 2269,
      "Ġintegers": 2270,
      "INF": 2271,
      "55": 2272,
      "]<<\"": 2273,
      "be": 2274,
      "br": 2275,
      "ied": 2276,
      "ret": 2277,
      "Ġtl": 2278,
      "Ġtimes": 2279,
      "Ġnegative": 2280,
      "Ġss": 2281,
      "ĠMin": 2282,
      "Ġvalid": 2283,
      "Ġ[](": 2284,
      "termin": 2285,
      "ĠTestCase": 2286,
      "algorithms": 2287,
      ")\"": 2288,
      "Mat": 2289,
      "]));": 2290,
      "dy": 2291,
      "ding": 2292,
      "dif": 2293,
      "even": 2294,
      "mx": 2295,
      "na": 2296,
      "sa": 2297,
      "Ġac": 2298,
      "lli": 2299,
      "Ġnow": 2300,
      "Ġptr": 2301,
      "hem": 2302,
      "Ġlongest": 2303,
      "Ġtesting": 2304,
      "cdot": 2305,
      "101": 2306,
      "Ġcompar": 2307,
      "Ġupd": 2308,
      "Ġabove": 2309,
      "error": 2310,
      "traversal": 2311,
      "hashing": 2312,
      "freq": 2313,
      "Ġter": 2314,
      "Ġfile": 2315,
      "Ġ13": 2316,
      "Ġboth": 2317,
      "rad": 2318,
      "Ġ25": 2319,
      "ization": 2320,
      "imer": 2321,
      "Ġ'.": 2322,
      "Ġthrou": 2323,
      "vals": 2324,
      "curr": 2325,
      "mem": 2326,
      "Ġprimes": 2327,
      "Ġsplit": 2328,
      "Ġboard": 2329,
      "Ġexists": 2330,
      "\"));": 2331,
      ")+": 2332,
      "49": 2333,
      "77": 2334,
      "Empty": 2335,
      "]--;": 2336,
      "ject": 2337,
      "move": 2338,
      "sig": 2339,
      "orces": 2340,
      "eric": 2341,
      "dependent": 2342,
      "Ġmove": 2343,
      "Ġpop": 2344,
      "Ġpoly": 2345,
      "()%": 2346,
      "Ġconstruct": 2347,
      "Ġexec": 2348,
      "ready": 2349,
      "Ġsmaller": 2350,
      "ĠComplexity": 2351,
      "Ġthrough": 2352,
      "$\\": 2353,
      "&&": 2354,
      "':": 2355,
      "(*": 2356,
      "66": 2357,
      "Cut": 2358,
      "__": 2359,
      "dynamic": 2360,
      "last": 2361,
      "operator": 2362,
      "pol": 2363,
      "rac": 2364,
      "Ġ::": 2365,
      "real": 2366,
      "Ġpi": 2367,
      "Ġsing": 2368,
      "Ġsign": 2369,
      "Ġinst": 2370,
      "Ġconnected": 2371,
      "ĠĠĠĠĠĠĠĠĠĠĠĠĠĠĠĠĠĠ": 2372,
      "Ġhalf": 2373,
      "Ġthre": 2374,
      "ĠGet": 2375,
      "Ġcolum": 2376,
      "note": 2377,
      "Ġwork": 2378,
      "Ġadjacency": 2379,
      "$,": 2380,
      "Output": 2381,
      "]->": 2382,
      "bst": 2383,
      "ham": 2384,
      "ner": 2385,
      "rr": 2386,
      "Ġstoring": 2387,
      "Ġbegin": 2388,
      "learning": 2389,
      "Ġrank": 2390,
      "edi": 2391,
      "edy": 2392,
      "Ġconvert": 2393,
      "Ġ200": 2394,
      "ntry": 2395,
      "shold": 2396,
      "ilter": 2397,
      "Ġalready": 2398,
      "ĠnewNode": 2399,
      "128": 2400,
      "cases": 2401,
      "version": 2402,
      "Ġlet": 2403,
      "ference": 2404,
      "Ġlinear": 2405,
      "~~~~~~~~~~~~~~~~~~~~~~~~~~~~~~~~": 2406,
      "Ġdirection": 2407,
      "Intersection": 2408,
      "Ġmessage": 2409,
      "hematic": 2410,
      "Ġthreshold": 2411,
      "IL": 2412,
      "OL": 2413,
      "Type": 2414,
      "\\\\": 2415,
      "cp": 2416,
      "pr": 2417,
      "ting": 2418,
      "ucl": 2419,
      "ump": 2420,
      "Ġ)": 2421,
      "Ġclo": 2422,
      "Ġfibonacci": 2423,
      "ats": 2424,
      "see": 2425,
      "ark": 2426,
      "Ġsy": 2427,
      "Ġ24": 2428,
      "ents": 2429,
      "deforces": 2430,
      "<<-": 2431,
      "Ġtested": 2432,
      "ĠCalc": 2433,
      "ception": 2434,
      "Ġfunctions": 2435,
      "Ġdivis": 2436,
      "pped": 2437,
      "Ġcommon": 2438,
      "board": 2439,
      "Ġincrement": 2440,
      "efficient": 2441,
      "Ġfollowing": 2442,
      ">());": 2443,
      "IM": 2444,
      "Mod": 2445,
      "To": 2446,
      "check": 2447,
      "ched": 2448,
      "Ġcr": 2449,
      "Ġread": 2450,
      "les": 2451,
      "Ġsqrt": 2452,
      "Ġoth": 2453,
      "enter": 2454,
      "00000000": 2455,
      "ĠGiven": 2456,
      "Ġcomponents": 2457,
      "Ġprevious": 2458,
      "Ġiteration": 2459,
      "rected": 2460,
      "argv": 2461,
      "Ġdifferent": 2462,
      "Ġothers": 2463,
      "(\\": 2464,
      ")*": 2465,
      "01": 2466,
      "Hull": 2467,
      "RE": 2468,
      "card": 2469,
      "dir": 2470,
      "lib": 2471,
      "tot": 2472,
      "using": 2473,
      "width": 2474,
      "Ġ...": 2475,
      "Ġfinal": 2476,
      "Ġmachine": 2477,
      "Ġpl": 2478,
      "Ġsin": 2479,
      "Ġver": 2480,
      "Ġeps": 2481,
      "added": 2482,
      "Ġkeep": 2483,
      "Ġ'\\": 2484,
      "respon": 2485,
      "Ġmatch": 2486,
      "Ġdelta": 2487,
      "Ġarrays": 2488,
      "Ġalpha": 2489,
      "Ġadded": 2490,
      "Ġexplicit": 2491,
      "ĠQu": 2492,
      "ĠHe": 2493,
      "Ġshow": 2494,
      "...\";": 2495,
      "Ġlevel": 2496,
      "Ġotherwise": 2497,
      "ression": 2498,
      ".\"": 2499,
      "45": 2500,
      "46": 2501,
      "ASE": 2502,
      "Double": 2503,
      "Su": 2504,
      "dx": 2505,
      "gic": 2506,
      "multip": 2507,
      "Ġacc": 2508,
      "Ġcarry": 2509,
      "head": 2510,
      "Ġsa": 2511,
      "Ġspace": 2512,
      "Ġsig": 2513,
      "Ġreturned": 2514,
      "Ġvd": 2515,
      "alue": 2516,
      "Ġ&=": 2517,
      "rapper": 2518,
      "assign": 2519,
      "cept": 2520,
      "Ġunsorted": 2521,
      "Ġdeg": 2522,
      "Ġarea": 2523,
      "common": 2524,
      "Ġintegral": 2525,
      "rences": 2526,
      "Ġcontaining": 2527,
      "90": 2528,
      "df": 2529,
      "joint": 2530,
      "lap": 2531,
      "Ġmode": 2532,
      "urst": 2533,
      "Ġpass": 2534,
      "Ġli": 2535,
      "Ġour": 2536,
      "osition": 2537,
      "Ġangle": 2538,
      "Ġindependent": 2539,
      "rival": 2540,
      "Ġconvex": 2541,
      "olution": 2542,
      "<<(": 2543,
      "igen": 2544,
      "ĠĠĠĠĠĠĠĠĠĠĠĠĠĠĠĠĠĠĠĠĠĠĠĠĠĠĠĠĠ": 2545,
      "ubble": 2546,
      "quency": 2547,
      "ĠDis": 2548,
      "ightPuzzle": 2549,
      "update": 2550,
      "Ġbased": 2551,
      "UnitTest": 2552,
      "ĠInitialize": 2553,
      "Ġremaining": 2554,
      "('": 2555,
      "38": 2556,
      "Binary": 2557,
      "CD": 2558,
      "OP": 2559,
      "Word": 2560,
      "]];": 2561,
      "lus": 2562,
      "medi": 2563,
      "print": 2564,
      "ratic": 2565,
      "rbegin": 2566,
      "Ġ{\"": 2567,
      "atch": 2568,
      "self": 2569,
      "Ġ19": 2570,
      "Ġbot": 2571,
      "Ġpolygon": 2572,
      "Ġvec": 2573,
      "Ġdir": 2574,
      "Ġ21": 2575,
      "own": 2576,
      "union": 2577,
      "adratic": 2578,
      "Ġpositive": 2579,
      "codeforces": 2580,
      "ĠĠĠĠĠĠĠĠĠĠĠĠĠĠĠĠĠĠĠĠĠĠĠĠĠĠĠĠĠĠĠĠĠĠ": 2581,
      "Ġcorrespon": 2582,
      "Ġdiff": 2583,
      "forgeeks": 2584,
      "geeksforgeeks": 2585,
      ")-": 2586,
      "28": 2587,
      "Man": 2588,
      "cache": 2589,
      "fn": 2590,
      "kth": 2591,
      "mn": 2592,
      "nEnter": 2593,
      "pa": 2594,
      "pe": 2595,
      "tt": 2596,
      "ination": 2597,
      "Ġmn": 2598,
      "Ġ17": 2599,
      "Ġbefore": 2600,
      "arp": 2601,
      "Ġplace": 2602,
      "Ġsear": 2603,
      "ĠĠĠĠĠĠĠĠĠĠĠĠĠĠĠĠĠĠĠĠĠĠĠĠĠ": 2604,
      "values": 2605,
      ")))": 2606,
      "lob": 2607,
      "Ġ40": 2608,
      "Ġfinds": 2609,
      "Ġtraverse": 2610,
      "subcase": 2611,
      "Ġless": 2612,
      "geometric": 2613,
      "Ġfactorial": 2614,
      "ĠConstruct": 2615,
      "ratio": 2616,
      "Ġoriginal": 2617,
      "DAT": 2618,
      "PI": 2619,
      "Sub": 2620,
      "rary": 2621,
      "}));": 2622,
      "step": 2623,
      "Ġ--": 2624,
      ">>>": 2625,
      "Ġgr": 2626,
      "Ġmodular": 2627,
      "ĠID": 2628,
      "Ġchange": 2629,
      "Ġthree": 2630,
      "ordin": 2631,
      "strings": 2632,
      "Ġdest": 2633,
      "ake": 2634,
      "matching": 2635,
      "Ġcompare": 2636,
      "Ġprop": 2637,
      "tract": 2638,
      "Ġwords": 2639,
      "Ġdefined": 2640,
      "Ġworks": 2641,
      "ĠExample": 2642,
      "imag": 2643,
      "capacity": 2644,
      "lapsed": 2645,
      "Ġcorresponding": 2646,
      ")};": 2647,
      "62": 2648,
      "AB": 2649,
      "Table": 2650,
      "[(": 2651,
      "]()": 2652,
      "asing": 2653,
      "ches": 2654,
      "go": 2655,
      "ger": 2656,
      "known": 2657,
      "pi": 2658,
      "sample": 2659,
      "water": 2660,
      "Ġfull": 2661,
      "eng": 2662,
      "Ġbr": 2663,
      "ances": 2664,
      "ĠTra": 2665,
      "++]": 2666,
      "Ġ\"\";": 2667,
      "Ġwr": 2668,
      "rime": 2669,
      "unordered": 2670,
      "ĠCASE": 2671,
      "]).": 2672,
      "inder": 2673,
      "asses": 2674,
      "Ġscore": 2675,
      "Ġoperation": 2676,
      "Ġfinding": 2677,
      "Ġpreorder": 2678,
      "ĠHash": 2679,
      "ĠInput": 2680,
      "Ġstrlen": 2681,
      "rono": 2682,
      "gonal": 2683,
      "Ġparame": 2684,
      "Ġargument": 2685,
      "Ġstored": 2686,
      "Ġfeatures": 2687,
      "Ġwhose": 2688,
      "75": 2689,
      ">{": 2690,
      "Ch": 2691,
      "bl": 2692,
      "block": 2693,
      "frac": 2694,
      "iation": 2695,
      "var": 2696,
      "ines": 2697,
      "inverse": 2698,
      "inomial": 2699,
      "Ġreach": 2700,
      "Ġfact": 2701,
      "ath": 2702,
      "Ġbound": 2703,
      "lect": 2704,
      "Ġpredict": 2705,
      "here": 2706,
      "Ġuses": 2707,
      "Ġmodulo": 2708,
      "Ġresults": 2709,
      "cesses": 2710,
      "Ġimplements": 2711,
      "acher": 2712,
      "sublist": 2713,
      "Ġiterative": 2714,
      "inkedList": 2715,
      "ĠtotalSize": 2716,
      "Ġproduct": 2717,
      "Ġcentre": 2718,
      "Ġdenot": 2719,
      "hematical": 2720,
      "-=": 2721,
      ".\\": 2722,
      "04": 2723,
      "Element": 2724,
      "]),": 2725,
      "der": 2726,
      "digit": 2727,
      "ear": 2728,
      "hat": 2729,
      "iance": 2730,
      "ule": 2731,
      "vail": 2732,
      "âĢ": 2733,
      "recursive": 2734,
      "Ġtm": 2735,
      "Ġcut": 2736,
      "Ġmult": 2737,
      "Ġrot": 2738,
      "Ġ22": 2739,
      "Ġgen": 2740,
      "Ġgap": 2741,
      "ĠIter": 2742,
      "Ġext": 2743,
      "Ġunordered": 2744,
      "Ġsched": 2745,
      "ĠUt": 2746,
      "Info": 2747,
      "Ġshortest": 2748,
      "strong": 2749,
      "Ġpts": 2750,
      "leted": 2751,
      "ENMP": 2752,
      "Ġsingle": 2753,
      "OPENMP": 2754,
      "+(": 2755,
      "13": 2756,
      "44": 2757,
      "bing": 2758,
      "ele": 2759,
      "mi": 2760,
      "mstrong": 2761,
      "sin": 2762,
      "ves": 2763,
      "deg": 2764,
      "Ġbipartite": 2765,
      "level": 2766,
      "Ġpw": 2767,
      "Ġpage": 2768,
      "Ġpuzzle": 2769,
      "Ġpostorder": 2770,
      "Ġunt": 2771,
      "Ġtheir": 2772,
      "()));": 2773,
      "Ġcons": 2774,
      "ĠĠĠĠĠĠĠĠĠĠĠĠĠĠĠĠĠĠĠĠ": 2775,
      "ĠĠĠĠĠĠĠĠĠĠĠĠĠĠĠĠĠĠĠĠĠĠĠĠĠĠĠĠĠĠĠ": 2776,
      "oman": 2777,
      "Ġknown": 2778,
      "ĠUp": 2779,
      "Ġsets": 2780,
      "Ġhashing": 2781,
      "Ġlargest": 2782,
      "argument": 2783,
      "Ġtake": 2784,
      "New": 2785,
      "integral": 2786,
      "radius": 2787,
      "Ġsearched": 2788,
      "ĠUtility": 2789,
      "200": 2790,
      "IS": 2791,
      "Present": 2792,
      "azy": 2793,
      "bf": 2794,
      "equ": 2795,
      "factorial": 2796,
      "gain": 2797,
      "kved": 2798,
      "two": 2799,
      "volume": 2800,
      "invalid": 2801,
      "Ġlabel": 2802,
      "Ġlambda": 2803,
      "rish": 2804,
      "ither": 2805,
      "ĠMax": 2806,
      "quick": 2807,
      "perp": 2808,
      "Ġbyte": 2809,
      "composition": 2810,
      "tains": 2811,
      "...\"": 2812,
      "ĠRecursive": 2813,
      "gestions": 2814,
      "enerate": 2815,
      "vertices": 2816,
      "ĠAlgorithms": 2817,
      "Ġ[&]()": 2818,
      "Ġobject": 2819,
      "Ġopen": 2820,
      "ĠCreate": 2821,
      "terminant": 2822,
      "kvedala": 2823,
      "FF": 2824,
      "Krish": 2825,
      "cestor": 2826,
      "tom": 2827,
      "vide": 2828,
      "wick": 2829,
      "ĠJ": 2830,
      "reap": 2831,
      "recurrence": 2832,
      "Ġtag": 2833,
      "Ġthird": 2834,
      "Ġ*******************************************************************************": 2835,
      "enwick": 2836,
      "Ġ/******************************************************************************": 2837,
      "Ġmost": 2838,
      "Ġvers": 2839,
      "ane": 2840,
      "Ġ%=": 2841,
      "ĠĠĠĠĠĠĠĠĠĠĠĠĠĠĠĠĠĠĠĠĠ": 2842,
      "Ġtry": 2843,
      "Ġbeing": 2844,
      "Ġitself": 2845,
      "1010": 2846,
      "setw": 2847,
      "Ġsubstring": 2848,
      "Ġpriority": 2849,
      "Ġaddition": 2850,
      "ĠCompute": 2851,
      "ãģ®": 2852,
      "forward": 2853,
      "limits": 2854,
      "iterative": 2855,
      "lish": 2856,
      "pattern": 2857,
      "Heap": 2858,
      "Ġ*******************************************************************************/": 2859,
      "):": 2860,
      "-(": 2861,
      "ACT": 2862,
      "cos": 2863,
      "rotate": 2864,
      "used": 2865,
      "Ġtill": 2866,
      "llo": 2867,
      "Ġreg": 2868,
      "Ġrest": 2869,
      "Ġrear": 2870,
      "eros": 2871,
      "ended": 2872,
      "ĠĠĠĠĠĠĠĠčĊ": 2873,
      "itt": 2874,
      "Ġrat": 2875,
      "oun": 2876,
      "andard": 2877,
      "contest": 2878,
      "egment": 2879,
      "Ġtrack": 2880,
      "Ġexact": 2881,
      "alloc": 2882,
      "ĠFibonacci": 2883,
      "ĠWor": 2884,
      "Ġencryption": 2885,
      "Ġtriangle": 2886,
      "weight": 2887,
      "String": 2888,
      "ager": 2889,
      "byte": 2890,
      "Ġchoose": 2891,
      "ĠShould": 2892,
      "Ġconstructor": 2893,
      "Ġ&=&": 2894,
      "Manager": 2895,
      "Krishna": 2896,
      "ACTL": 2897,
      "59": 2898,
      "Are": 2899,
      "lar": 2900,
      "mary": 2901,
      "rank": 2902,
      "ze": 2903,
      "Ġ;": 2904,
      "inator": 2905,
      "rev": 2906,
      "rend": 2907,
      "Ġpalindrome": 2908,
      "Ġsrc": 2909,
      "aces": 2910,
      "edala": 2911,
      "Ġopt": 2912,
      "ĠNot": 2913,
      "ĠAr": 2914,
      "ĠST": 2915,
      "ands": 2916,
      "imens": 2917,
      "--,": 2918,
      "ominator": 2919,
      "exponent": 2920,
      "linear": 2921,
      "Ġ500": 2922,
      "ified": 2923,
      "ĠLe": 2924,
      "tag": 2925,
      "Ġscal": 2926,
      "term": 2927,
      "ĠThere": 2928,
      "ĠVedala": 2929,
      "substr": 2930,
      "viation": 2931,
      "--------": 2932,
      "fibonacci": 2933,
      "solution": 2934,
      "Ġevaluate": 2935,
      "Ġ**/": 2936,
      "Ġdiag": 2937,
      "Area": 2938,
      ")]": 2939,
      "07": 2940,
      "67": 2941,
      "LinkedList": 2942,
      "Tr": 2943,
      "Vector": 2944,
      "Wrapper": 2945,
      "]*": 2946,
      "hs": 2947,
      "lca": 2948,
      "oh": 2949,
      "target": 2950,
      "uv": 2951,
      "Ġide": 2952,
      "Ġtuple": 2953,
      "Ġam": 2954,
      "Ġau": 2955,
      "uted": 2956,
      "Ġpadded": 2957,
      "Ġrotate": 2958,
      "Ġancestor": 2959,
      "Ġwidth": 2960,
      "Ġways": 2961,
      "ĠNAN": 2962,
      "entry": 2963,
      "olog": 2964,
      "izes": 2965,
      "Ġconstant": 2966,
      "aster": 2967,
      "load": 2968,
      "ĠRem": 2969,
      "ĠnotPresent": 2970,
      "position": 2971,
      "Ġsubsequence": 2972,
      "ĠUsage": 2973,
      "Ġsupp": 2974,
      "Ġsuffix": 2975,
      "Ġtraver": 2976,
      "]]++;": 2977,
      "points": 2978,
      "Ġcounter": 2979,
      "create": 2980,
      "Ġbuf": 2981,
      "Ġremov": 2982,
      "solve": 2983,
      "Ġvariables": 2984,
      "Ġsolutions": 2985,
      "message": 2986,
      "greater": 2987,
      "Ġapproximation": 2988,
      "Ġbottom": 2989,
      "!\");": 2990,
      ")<<": 2991,
      "05": 2992,
      "09": 2993,
      "78": 2994,
      "An": 2995,
      "CM": 2996,
      "Median": 2997,
      "RU": 2998,
      "Range": 2999,
      "cent": 3000,
      "eded": 3001,
      "mul": 3002,
      "poly": 3003,
      "postorder": 3004,
      "ration": 3005,
      "small": 3006,
      "tc": 3007,
      "wor": 3008,
      "||": 3009,
      "Ġchi": 3010,
      "Ġfin": 3011,
      "Ġ18": 3012,
      "Ġbst": 3013,
      "lean": 3014,
      "Ġlib": 3015,
      "rie": 3016,
      "idi": 3017,
      "ider": 3018,
      "otot": 3019,
      "Ġgl": 3020,
      "Ġselect": 3021,
      "andom": 3022,
      "ĠCircular": 3023,
      "Ġbecom": 3024,
      "ĠEntry": 3025,
      "tests": 3026,
      "Ġ2019": 3027,
      "numbers": 3028,
      "Ġmeans": 3029,
      "preorder": 3030,
      "texttt": 3031,
      "Ġcomb": 3032,
      "Ġsuccessor": 3033,
      "Ġgreedy": 3034,
      "Ġsamples": 3035,
      "Ġcalled": 3036,
      "obj": 3037,
      "Ġterm": 3038,
      "memory": 3039,
      "Ġcolumns": 3040,
      "Ġuntil": 3041,
      "ounded": 3042,
      "Ġchilli": 3043,
      "ototype": 3044,
      ")$": 3045,
      ",\\": 3046,
      "02": 3047,
      "47": 3048,
      "CC": 3049,
      "CK": 3050,
      "best": 3051,
      "cstring": 3052,
      "face": 3053,
      "fstream": 3054,
      "merge": 3055,
      "}(": 3056,
      "ĠZ": 3057,
      "orse": 3058,
      "Ġredges": 3059,
      "Ġreference": 3060,
      "Ġfilter": 3061,
      "delta": 3062,
      "Ġdown": 3063,
      "Ġev": 3064,
      "Ġ\"-": 3065,
      "Ġtolower": 3066,
      "Ġseen": 3067,
      "minip": 3068,
      "loc": 3069,
      "Ġbeca": 3070,
      "Ġdet": 3071,
      "Ġallow": 3072,
      "types": 3073,
      "<<\"\\": 3074,
      "Ġprovide": 3075,
      "Ġsubarray": 3076,
      "itions": 3077,
      "idean": 3078,
      "rows": 3079,
      "prior": 3080,
      "ciph": 3081,
      "Ġdsu": 3082,
      "power": 3083,
      "fficient": 3084,
      "Ġmemset": 3085,
      "Ġfrequency": 3086,
      "Ġfactors": 3087,
      "ĠSorting": 3088,
      "Ġcipher": 3089,
      "tries": 3090,
      "dijkstra": 3091,
      "Ġblocks": 3092,
      "Ġsegs": 3093,
      "uclidean": 3094,
      "minipage": 3095,
      "Ġbecause": 3096,
      ")%": 3097,
      "=\\": 3098,
      "Bit": 3099,
      "From": 3100,
      "MOD": 3101,
      "[],": 3102,
      "circle": 3103,
      "copy": 3104,
      "hull": 3105,
      "linked": 3106,
      "rm": 3107,
      "round": 3108,
      "tl": 3109,
      "})": 3110,
      "³ãĥ": 3111,
      "reverse": 3112,
      "Ġrel": 3113,
      "Ġfib": 3114,
      "Ġmon": 3115,
      "Ġpol": 3116,
      "Ġsieve": 3117,
      "iting": 3118,
      "Ġlazy": 3119,
      "Ġdot": 3120,
      "Ġ/**<": 3121,
      "Ġgot": 3122,
      "mask": 3123,
      "ĠInt": 3124,
      "ĠSet": 3125,
      "Ġ35": 3126,
      "ison": 3127,
      "ĠMST": 3128,
      "ĠCache": 3129,
      "Ġhld": 3130,
      "Ġhold": 3131,
      "lore": 3132,
      "Ġcoef": 3133,
      "ording": 3134,
      "Ġneeded": 3135,
      "ĠOper": 3136,
      "ĠOther": 3137,
      "ainwater": 3138,
      "modular": 3139,
      "Ġsuper": 3140,
      "components": 3141,
      "Ġcolor": 3142,
      "ferences": 3143,
      "Ġpaths": 3144,
      "Ġspec": 3145,
      "Ġ128": 3146,
      "Ġmultiple": 3147,
      "ĠExp": 3148,
      "Ġcomputed": 3149,
      "Ġrecursively": 3150,
      "Ġcalculated": 3151,
      "Linear": 3152,
      "uffle": 3153,
      "ĠSIZE": 3154,
      "Ġsignature": 3155,
      "Ġaccording": 3156,
      "NewNode": 3157,
      "ological": 3158,
      "createNewNode": 3159,
      "(<": 3160,
      ".,": 3161,
      "._": 3162,
      "82": 3163,
      ">)": 3164,
      "Col": 3165,
      "FA": 3166,
      "Num": 3167,
      "PER": 3168,
      "Third": 3169,
      "ful": 3170,
      "factor": 3171,
      "func": 3172,
      "ised": 3173,
      "ially": 3174,
      "mov": 3175,
      "Ġerase": 3176,
      "Ġagain": 3177,
      "Ġfree": 3178,
      "Ġmark": 3179,
      "Ġstats": 3180,
      "Ġpq": 3181,
      "hest": 3182,
      "ality": 3183,
      "Ġthey": 3184,
      "Ġdone": 3185,
      "Ġomp": 3186,
      "Ġops": 3187,
      "clic": 3188,
      "ending": 3189,
      "Ġwould": 3190,
      "ĠPre": 3191,
      "roid": 3192,
      "unique": 3193,
      "cho": 3194,
      "chrono": 3195,
      "ĠĠĠĠĠĠĠĠĠĠĠĠĠĠĠĠĠĠĠĠĠĠĠĠ": 3196,
      "ĠmaxX": 3197,
      "ĠCall": 3198,
      "maxM": 3199,
      "Ġ'#": 3200,
      "loom": 3201,
      "Ġstarts": 3202,
      "Ġcopy": 3203,
      "....": 3204,
      "ask": 3205,
      "Ġunion": 3206,
      "ĠEn": 3207,
      "Ġ((*": 3208,
      "Ġwithin": 3209,
      "Ġdistances": 3210,
      "probing": 3211,
      "ĠstackA": 3212,
      "Sorted": 3213,
      "cursion": 3214,
      "Ġiterator": 3215,
      "neighb": 3216,
      "Ġparall": 3217,
      "avy": 3218,
      "Ġmultiplication": 3219,
      "division": 3220,
      "Ġintervals": 3221,
      "Ġmany": 3222,
      "words": 3223,
      "Ġcross": 3224,
      "Ġversion": 3225,
      "/>": 3226,
      "03": 3227,
      "92": 3228,
      "93": 3229,
      "As": 3230,
      "BLE": 3231,
      "Co": 3232,
      "Cache": 3233,
      "Factorial": 3234,
      "Iter": 3235,
      "OM": 3236,
      "Pair": 3237,
      "PUT": 3238,
      "Segment": 3239,
      "]<<": 3240,
      "aa": 3241,
      "ethod": 3242,
      "fast": 3243,
      "light": 3244,
      "pen": 3245,
      "son": 3246,
      "Ġ){": 3247,
      "Ġimp": 3248,
      "Ġflip": 3249,
      "dest": 3250,
      "Ġmu": 3251,
      "urface": 3252,
      "utility": 3253,
      "Ġbas": 3254,
      "Ġpost": 3255,
      "ctime": 3256,
      "ĠTEST": 3257,
      "close": 3258,
      "Ġefficient": 3259,
      "Ġmask": 3260,
      "ots": 3261,
      ">>&": 3262,
      "Ġhand": 3263,
      "vell": 3264,
      "cket": 3265,
      "osthen": 3266,
      "ĠEP": 3267,
      "Ġprofit": 3268,
      "numeric": 3269,
      "Ġhex": 3270,
      "Ġens": 3271,
      "Ġinitialize": 3272,
      "aving": 3273,
      "iled": 3274,
      "letion": 3275,
      "Ġtaken": 3276,
      "Distance": 3277,
      "Ġchildren": 3278,
      "rectional": 3279,
      "anged": 3280,
      "LON": 3281,
      "diff": 3282,
      "Ġinstance": 3283,
      "ĠCalculate": 3284,
      "Ġlike": 3285,
      "ĠConstructor": 3286,
      "Ġparameter": 3287,
      "osthenes": 3288,
      "58": 3289,
      "94": 3290,
      "Check": 3291,
      "EF": 3292,
      "End": 3293,
      "Flow": 3294,
      "Hash": 3295,
      "Key": 3296,
      "Karp": 3297,
      "SC": 3298,
      "Top": 3299,
      "]\\": 3300,
      "]])": 3301,
      "euler": 3302,
      "ha": 3303,
      "md": 3304,
      "no": 3305,
      "sstream": 3306,
      "inf": 3307,
      "init": 3308,
      "static": 3309,
      "Ġ(;": 3310,
      "eries": 3311,
      "Ġfft": 3312,
      "Ġfinv": 3313,
      "Ġmi": 3314,
      "ionSort": 3315,
      "Ġ\".": 3316,
      "ection": 3317,
      "clus": 3318,
      "ertex": 3319,
      "iding": 3320,
      "ĠApp": 3321,
      "ĠSu": 3322,
      "Ġ36": 3323,
      "ĠĠĠĠĠĠĠĠĠĠĠĠĠĠĠĠĠĠĠĠĠĠ": 3324,
      "ĠCopy": 3325,
      "Ġcoefficient": 3326,
      "Ġbeen": 3327,
      "ĠINPUT": 3328,
      "Ġunique": 3329,
      "Ġmatches": 3330,
      "Ġ65": 3331,
      "ĠDef": 3332,
      "ĠEightPuzzle": 3333,
      "actual": 3334,
      "Ġlook": 3335,
      "Ġdistrib": 3336,
      "Ġdistribution": 3337,
      "ĠOF": 3338,
      "Ġchecking": 3339,
      "Ġsearching": 3340,
      "Ġintegration": 3341,
      "versions": 3342,
      "Ġadding": 3343,
      "Ġ$\\": 3344,
      "Ġcols": 3345,
      "Ġmean": 3346,
      "uplic": 3347,
      "Ġequation": 3348,
      "Ġdefin": 3349,
      "ĠMathematical": 3350,
      "Ġapproach": 3351,
      "Ġcomputes": 3352,
      "display": 3353,
      "Ġmoves": 3354,
      "Ġcomparison": 3355,
      "total": 3356,
      "multiplication": 3357,
      "DATA": 3358,
      "ordinates": 3359,
      "Ġdestination": 3360,
      "idirectional": 3361,
      "(_": 3362,
      "06": 3363,
      "74": 3364,
      "98": 3365,
      ";}": 3366,
      "For": 3367,
      "LD": 3368,
      "bc": 3369,
      "bre": 3370,
      "can": 3371,
      "du": 3372,
      "dfs": 3373,
      "ier": 3374,
      "longest": 3375,
      "mo": 3376,
      "median": 3377,
      "ores": 3378,
      "ped": 3379,
      "pect": 3380,
      "pose": 3381,
      "predict": 3382,
      "qi": 3383,
      "vd": 3384,
      "Ġerror": 3385,
      "Ġcatch": 3386,
      "Ġfour": 3387,
      "aced": 3388,
      "Ġxum": 3389,
      "eds": 3390,
      "Ġ\")": 3391,
      "ĠNe": 3392,
      "ota": 3393,
      "Ġgrou": 3394,
      "Ġmodpow": 3395,
      "ĠSub": 3396,
      "ula": 3397,
      "paration": 3398,
      "Ġjust": 3399,
      "Ġjump": 3400,
      "ĠMod": 3401,
      "ilon": 3402,
      "eger": 3403,
      "ques": 3404,
      "ĠBase": 3405,
      "Ġpointers": 3406,
      "ĠKACTL": 3407,
      "ĠĠĠĠĠĠčĊ": 3408,
      "Ġchecks": 3409,
      "roots": 3410,
      "mathbf": 3411,
      "prefix": 3412,
      "ustom": 3413,
      "Ġrepresents": 3414,
      "Ġrepresenting": 3415,
      "Minimum": 3416,
      "Ġquadratic": 3417,
      "Ġoverload": 3418,
      "100010": 3419,
      "ancestor": 3420,
      "segtree": 3421,
      "Ġchoice": 3422,
      "Ġupdated": 3423,
      "Transform": 3424,
      "ĠRemove": 3425,
      "Ġgoto": 3426,
      "\"},": 3427,
      ")}": 3428,
      "*\\": 3429,
      "Algorithm": 3430,
      "Arr": 3431,
      "De": 3432,
      "Fast": 3433,
      "IG": 3434,
      "IST": 3435,
      "Prime": 3436,
      "calc": 3437,
      "kip": 3438,
      "lambda": 3439,
      "pivot": 3440,
      "src": 3441,
      "ways": 3442,
      "}_": 3443,
      "Ġâ": 3444,
      "stem": 3445,
      "rees": 3446,
      "Ġiota": 3447,
      "Ġtimer": 3448,
      "Ġaccess": 3449,
      "=='": 3450,
      "encrypt": 3451,
      "Ġname": 3452,
      "Ġnxt": 3453,
      "Ġbv": 3454,
      "hex": 3455,
      "item": 3456,
      "Ġrb": 3457,
      "Ġrall": 3458,
      "Ġthese": 3459,
      "clone": 3460,
      "Ġmagic": 3461,
      "Ġcond": 3462,
      "defined": 3463,
      "Ġrespect": 3464,
      "stderr": 3465,
      "otient": 3466,
      "Ġgray": 3467,
      "Ġgive": 3468,
      "shape": 3469,
      "Ġ31": 3470,
      "eft": 3471,
      "ĠtestCase": 3472,
      "chain": 3473,
      "contains": 3474,
      "Ġchain": 3475,
      "Ġvals": 3476,
      "Ġhou": 3477,
      "ĠRun": 3478,
      "Ġbelong": 3479,
      "Ġdecryption": 3480,
      "109": 3481,
      "ĠcurStack": 3482,
      "Ġfastpow": 3483,
      "lazy": 3484,
      "100001": 3485,
      "cmf": 3486,
      "ĠUsing": 3487,
      "1234": 3488,
      "ĠPointer": 3489,
      "valueType": 3490,
      "preferences": 3491,
      "cstdlib": 3492,
      "Ġcreated": 3493,
      "Ġstatement": 3494,
      "Ġargc": 3495,
      "MPLE": 3496,
      "ĠProgram": 3497,
      "ORE": 3498,
      "Convex": 3499,
      "jectile": 3500,
      "Ġclosed": 3501,
      "Ġsince": 3502,
      "Ġmulti": 3503,
      "imension": 3504,
      "locity": 3505,
      "clusive": 3506,
      "uplicate": 3507,
      "AL": 3508,
      "AUT": 3509,
      "Center": 3510,
      "FT": 3511,
      "GIST": 3512,
      "Not": 3513,
      "Time": 3514,
      "[-": 3515,
      "aive": 3516,
      "ared": 3517,
      "bounded": 3518,
      "ead": 3519,
      "kar": 3520,
      "td": 3521,
      "ton": 3522,
      "timer": 3523,
      "vin": 3524,
      "xn": 3525,
      "ster": 3526,
      "Ġtd": 3527,
      "Ġavail": 3528,
      "Ġcustom": 3529,
      "onen": 3530,
      "Ġrev": 3531,
      "ery": 3532,
      "ength": 3533,
      "atsub": 3534,
      "Ġng": 3535,
      "Ġnone": 3536,
      "Ġbinomial": 3537,
      "Ġsparse": 3538,
      "alues": 3539,
      "ĠTnode": 3540,
      "Ġ\"+": 3541,
      "raphi": 3542,
      "ĠNUM": 3543,
      "Ġtol": 3544,
      "izing": 3545,
      "ĠPer": 3546,
      "mag": 3547,
      "Ġ34": 3548,
      "change": 3549,
      "---": 3550,
      "Ġarrival": 3551,
      "Ġknapsack": 3552,
      "ĠgetCount": 3553,
      "Ġcover": 3554,
      "ĠFast": 3555,
      "ift": 3556,
      "Ġdel": 3557,
      "105": 3558,
      "106": 3559,
      "Ġalloc": 3560,
      "ĠcurQueue": 3561,
      "Ġwell": 3562,
      "Ġloc": 3563,
      "manacher": 3564,
      "Ġcannot": 3565,
      "primes": 3566,
      "features": 3567,
      "Ġbitset": 3568,
      "Ġinserted": 3569,
      "upper": 3570,
      "Ġargv": 3571,
      "Ġprototype": 3572,
      "567": 3573,
      "Ġtakes": 3574,
      "Ġcalls": 3575,
      "ĠProcess": 3576,
      "problems": 3577,
      "Union": 3578,
      "directed": 3579,
      "Ġexponentiation": 3580,
      "elements": 3581,
      "ĠBinaryTree": 3582,
      "ĠSIMPLE": 3583,
      "traversals": 3584,
      "Ġ2009": 3585,
      "Ġletters": 3586,
      "Ġdivisor": 3587,
      "lesman": 3588,
      "Ġverify": 3589,
      "ĠDisplay": 3590,
      "english": 3591,
      "ittle": 3592,
      "Ġlibrary": 3593,
      "OREGIST": 3594,
      "AUTOREGIST": 3595,
      "atsuba": 3596,
      "AUTOREGISTER": 3597,
      "52": 3598,
      "97": 3599,
      "Cy": 3600,
      "ET": 3601,
      "Elapsed": 3602,
      "Fxn": 3603,
      "Plus": 3604,
      "Root": 3605,
      "ale": 3606,
      "cn": 3607,
      "cimal": 3608,
      "dia": 3609,
      "fail": 3610,
      "ible": 3611,
      "ish": 3612,
      "lass": 3613,
      "ping": 3614,
      "part": 3615,
      "sparse": 3616,
      "xi": 3617,
      "{-": 3618,
      "Ġ99": 3619,
      "refer": 3620,
      "Ġio": 3621,
      "Ġ(-": 3622,
      "Ġcard": 3623,
      "Ġstates": 3624,
      "utes": 3625,
      "Ġburst": 3626,
      "armstrong": 3627,
      "Ġrt": 3628,
      "Ġlines": 3629,
      "clk": 3630,
      "cls": 3631,
      "Ġeither": 3632,
      "exist": 3633,
      "unsigned": 3634,
      "ives": 3635,
      "ĠĠĠĠĠĠĠĠĠĠĠĠĠĠĠĠĠĠĠĠĠĠĠĠĠĠĠĠ": 3636,
      "ĠĠĠĠĠĠĠĠĠĠĠĠĠĠĠĠĠĠĠĠĠĠĠĠĠĠ": 3637,
      "appro": 3638,
      "ube": 3639,
      "quent": 3640,
      "backtracking": 3641,
      "minimum": 3642,
      "ĠRep": 3643,
      "ific": 3644,
      "perm": 3645,
      "ĠLCT": 3646,
      "Ġclone": 3647,
      "Ġwithout": 3648,
      "ormal": 3649,
      "142": 3650,
      "Ġsubcase": 3651,
      "horsp": 3652,
      "100000": 3653,
      "ĠValue": 3654,
      "ĠWhen": 3655,
      "epth": 3656,
      "Ġ97": 3657,
      "ĠtimeElapsed": 3658,
      "Ġleast": 3659,
      "trapped": 3660,
      "Ġrepresented": 3661,
      "simp": 3662,
      "Ġdisjoint": 3663,
      "ĠbinaryTree": 3664,
      "Ġmemo": 3665,
      "Ġworst": 3666,
      "Ġincrease": 3667,
      "theory": 3668,
      "Ġsubsets": 3669,
      "ikipedia": 3670,
      "Ġ'.')": 3671,
      "polation": 3672,
      "Ġclose": 3673,
      "ĠTraversal": 3674,
      "ĠUpdate": 3675,
      "ĠMaximum": 3676,
      "ĠNote": 3677,
      "Ġsupport": 3678,
      "ĠOperations": 3679,
      "velling": 3680,
      "horspool": 3681,
      ")`": 3682,
      "43": 3683,
      "63": 3684,
      "It": 3685,
      "LCT": 3686,
      "Roman": 3687,
      "Treap": 3688,
      "Value": 3689,
      "]});": 3690,
      "]!=": 3691,
      "``": 3692,
      "blob": 3693,
      "dle": 3694,
      "fset": 3695,
      "flip": 3696,
      "gg": 3697,
      "given": 3698,
      "hpp": 3699,
      "mex": 3700,
      "nn": 3701,
      "nTest": 3702,
      "rng": 3703,
      "sy": 3704,
      "ud": 3705,
      "yer": 3706,
      "Ġord": 3707,
      "req": 3708,
      "remove": 3709,
      "Ġclock": 3710,
      "Ġrect": 3711,
      "atistic": 3712,
      "uristic": 3713,
      "sect": 3714,
      "Ġbc": 3715,
      "Ġuf": 3716,
      "Ġoc": 3717,
      "Ġway": 3718,
      "Ġinversions": 3719,
      "rices": 3720,
      "ĠAll": 3721,
      "ĠSum": 3722,
      "ĠSol": 3723,
      "ĠSpace": 3724,
      "ĠClass": 3725,
      "Ġnums": 3726,
      "reser": 3727,
      "Ġends": 3728,
      "ĠBit": 3729,
      "Ġmatrices": 3730,
      "Ġdependent": 3731,
      "ĠDynamic": 3732,
      "Ġtypes": 3733,
      "Ġcomponent": 3734,
      "ĠrandRange": 3735,
      "ĠQueue": 3736,
      "ynomial": 3737,
      "ĠTested": 3738,
      "grou": 3739,
      "Ġ2020": 3740,
      "mathrm": 3741,
      "ĠlogN": 3742,
      "logN": 3743,
      "Ġintersection": 3744,
      "Separation": 3745,
      "+=(": 3746,
      "Ġmethods": 3747,
      "ãĤĴ": 3748,
      "ildcard": 3749,
      "iterator": 3750,
      "succ": 3751,
      "Ġcentres": 3752,
      "MPO": 3753,
      "Ġincreasing": 3754,
      "ircum": 3755,
      "ĠUnitTestManager": 3756,
      "hole": 3757,
      "Ġdoesn": 3758,
      "dots": 3759,
      "Ġdenominator": 3760,
      "segmentIntersection": 3761,
      "children": 3762,
      "Success": 3763,
      "Ġmodel": 3764,
      "medians": 3765,
      "elem": 3766,
      "Ġconsider": 3767,
      "Ġensure": 3768,
      "\"};": 3769,
      ")>": 3770,
      "*,": 3771,
      "*>": 3772,
      ",\"": 3773,
      "=-": 3774,
      "Pos": 3775,
      "Qu": 3776,
      "RID": 3777,
      "Rainwater": 3778,
      "]][": 3779,
      "ailed": 3780,
      "eq": 3781,
      "found": 3782,
      "ggestions": 3783,
      "han": 3784,
      "lps": 3785,
      "mode": 3786,
      "srand": 3787,
      "uous": 3788,
      "vv": 3789,
      "ĠĠĠĠĠčĊ": 3790,
      "inic": 3791,
      "ĠĠĠĠĠĠĠčĊ": 3792,
      "star": 3793,
      "Ġ=>": 3794,
      "reversal": 3795,
      "Ġtin": 3796,
      "Ġtie": 3797,
      "Ġcc": 3798,
      "ones": 3799,
      "atis": 3800,
      "Ġms": 3801,
      "seen": 3802,
      "Ġput": 3803,
      "Ġpasses": 3804,
      "Ġsgn": 3805,
      "Ġforward": 3806,
      "++,": 3807,
      "Ġeigen": 3808,
      "Ġ\":": 3809,
      "sson": 3810,
      "Ġwt": 3811,
      "Ġinq": 3812,
      "umul": 3813,
      "raham": 3814,
      "ough": 3815,
      "Ġcontest": 3816,
      "Ġ28": 3817,
      "mainder": 3818,
      "master": 3819,
      "Ġselection": 3820,
      "und": 3821,
      "Ġchun": 3822,
      "Ġtransform": 3823,
      "Ġhaving": 3824,
      "ĠFlow": 3825,
      "ĠLinked": 3826,
      "Ġdeleted": 3827,
      "rule": 3828,
      "108": 3829,
      "coding": 3830,
      "Ġfaster": 3831,
      "ldots": 3832,
      "profit": 3833,
      "Ġ```": 3834,
      "ĠexpectedData": 3835,
      "Init": 3836,
      "Inorder": 3837,
      "Initial": 3838,
      "addle": 3839,
      "(((": 3840,
      "Ġzeros": 3841,
      "Ġabout": 3842,
      "subset": 3843,
      "formation": 3844,
      "ĠdeleteAll": 3845,
      "Ġcomm": 3846,
      "Ġcreating": 3847,
      "Ġboo": 3848,
      "path": 3849,
      "trie": 3850,
      "theta": 3851,
      "ĠCreates": 3852,
      "abcdef": 3853,
      "LOCK": 3854,
      "Ġneighbor": 3855,
      "Reverse": 3856,
      "Matching": 3857,
      "Ġletter": 3858,
      "samples": 3859,
      "Ġdenotes": 3860,
      "equal": 3861,
      "ohonen": 3862,
      "Ġtraversing": 3863,
      "breviation": 3864,
      "Ġbelongs": 3865,
      "Ġ\"+\",": 3866,
      "atistics": 3867,
      "&(": 3868,
      "/(": 3869,
      "08": 3870,
      "48": 3871,
      "51": 3872,
      "61": 3873,
      "Add": 3874,
      "CE": 3875,
      "DFS": 3876,
      "Euler": 3877,
      "Path": 3878,
      "QR": 3879,
      "UR": 3880,
      "\\_": 3881,
      "`:": 3882,
      "af": 3883,
      "au": 3884,
      "bubble": 3885,
      "ere": 3886,
      "ell": 3887,
      "lt": 3888,
      "lcm": 3889,
      "label": 3890,
      "name": 3891,
      "ograph": 3892,
      "run": 3893,
      "wit": 3894,
      "Ġgeometric": 3895,
      "Ġtail": 3896,
      "Ġcd": 3897,
      "ont": 3898,
      "erance": 3899,
      "Ġfunc": 3900,
      "att": 3901,
      "Ġmcmf": 3902,
      "Ġnn": 3903,
      "arlo": 3904,
      "Ġpick": 3905,
      "Ġpdf": 3906,
      "Ġsrand": 3907,
      "Ġsav": 3908,
      "Ġswit": 3909,
      "Ġvl": 3910,
      "Ġrng": 3911,
      "als": 3912,
      "alpha": 3913,
      "()-": 3914,
      "()->": 3915,
      "Ġxi": 3916,
      "clim": 3917,
      "Ġeq": 3918,
      "Ġ\"]": 3919,
      "Ġ-.": 3920,
      "raw": 3921,
      "Ġmay": 3922,
      "Ġtom": 3923,
      "ĠPush": 3924,
      "magic": 3925,
      "ĠAss": 3926,
      "ĠSOM": 3927,
      "uling": 3928,
      "isEmpty": 3929,
      "chmid": 3930,
      "Ġaround": 3931,
      "ĠĠĠĠĠĠĠĠĠĠĠĠĠĠĠĠĠĠĠĠĠĠĠĠĠĠĠĠĠĠ": 3932,
      "convex": 3933,
      "resence": 3934,
      "Ġharr": 3935,
      "Ġ[-": 3936,
      "Ġcoins": 3937,
      "Ġunit": 3938,
      "Ġalong": 3939,
      "cessed": 3940,
      "ĠVector": 3941,
      "ĠUse": 3942,
      "ĠTesting": 3943,
      "ĠXOR": 3944,
      "orem": 3945,
      "Insert": 3946,
      "ĠĠĠĠĠĠĠĠĠĠĠĠĠĠĠĠĠĠĠĠĠĠĠĠĠĠĠĠĠĠĠĠĠĠĠĠĠĠ": 3947,
      "Ġ2015": 3948,
      "((*": 3949,
      "ĠStart": 3950,
      "Ġident": 3951,
      "Ġlowest": 3952,
      "Ġtrapped": 3953,
      "1111": 3954,
      "queens": 3955,
      "Ġiterations": 3956,
      "Ġbucket": 3957,
      "SEC": 3958,
      "Ġ123": 3959,
      "Ġlarger": 3960,
      "vertex": 3961,
      "Ġheader": 3962,
      "letter": 3963,
      "suffix": 3964,
      "OfWord": 3965,
      "Ġ\",\";": 3966,
      "^{-": 3967,
      "Interval": 3968,
      "alindromic": 3969,
      "AND": 3970,
      "OrderIter": 3971,
      "binomial": 3972,
      "segDist": 3973,
      "Hello": 3974,
      "Ġevaluated": 3975,
      "ĠMinHeap": 3976,
      "Matrix": 3977,
      "Ġexecution": 3978,
      "Ġexecute": 3979,
      "Ġbeginning": 3980,
      "Ġpassing": 3981,
      "ISH": 3982,
      "Ġremoved": 3983,
      "Ġbecomes": 3984,
      "cipher": 3985,
      "ĠCacheNode": 3986,
      "Ġdistributed": 3987,
      "56789": 3988,
      "addleback": 3989,
      "LOCKS": 3990,
      "chmidt": 3991,
      "OrderIterative": 3992,
      ")];": 3993,
      ")](": 3994,
      ".\";": 3995,
      "53": 3996,
      "57": 3997,
      "73": 3998,
      "Freq": 3999,
      "IMPO": 4000,
      "OW": 4001,
      "Sw": 4002,
      "SSI": 4003,
      "bidirectional": 4004,
      "ijkstra": 4005,
      "linder": 4006,
      "post": 4007,
      "scc": 4008,
      "tmp": 4009,
      "vg": 4010,
      "Ġturn": 4011,
      "Ġreache": 4012,
      "decomposition": 4013,
      "Ġbi": 4014,
      "Ġsim": 4015,
      "Ġseries": 4016,
      "esar": 4017,
      "Ġder": 4018,
      "Ġduplicate": 4019,
      "classes": 4020,
      "Ġanother": 4021,
      "riend": 4022,
      "oupper": 4023,
      "ĠNum": 4024,
      "Ġtour": 4025,
      "ished": 4026,
      "undef": 4027,
      "ĠtestP": 4028,
      "ĠMS": 4029,
      "ĠCount": 4030,
      "ily": 4031,
      "maxX": 4032,
      "Ġgets": 4033,
      "Ġtrans": 4034,
      "ĠGCD": 4035,
      "ĠBurst": 4036,
      "Ġunder": 4037,
      "ĠLength": 4038,
      "Ġdecrypt": 4039,
      "Ġdeterminant": 4040,
      "Ġpairs": 4041,
      "opc": 4042,
      "Ġprocesses": 4043,
      "Ġorient": 4044,
      "Ġprecision": 4045,
      "Ġchecked": 4046,
      "123": 4047,
      "Ġshort": 4048,
      "Ġshuffle": 4049,
      "ĠStack": 4050,
      "comput": 4051,
      "arest": 4052,
      "toVector": 4053,
      "Ġencrypt": 4054,
      "Ġsteps": 4055,
      "others": 4056,
      "Ġperm": 4057,
      "Ġperimeter": 4058,
      "SILON": 4059,
      "Exception": 4060,
      "ffer": 4061,
      "Ġ{{{": 4062,
      "ãĤĭ": 4063,
      "divis": 4064,
      "Ġtaking": 4065,
      "Ġenter": 4066,
      "Ġradix": 4067,
      "ĠProgramming": 4068,
      "ĠFinds": 4069,
      "ĠPrints": 4070,
      "Ġheapify": 4071,
      "Ġcalculates": 4072,
      "sideOf": 4073,
      "oisson": 4074,
      "Ġapply": 4075,
      "Ġdiagonal": 4076,
      "hamming": 4077,
      "ĠCalcul": 4078,
      "Ġreachable": 4079,
      "âĢĻ": 4080,
      "large": 4081,
      "Ġaugment": 4082,
      "ĠInteger": 4083,
      "ĠEPSILON": 4084,
      "approx": 4085,
      "trappedRainwater": 4086,
      "attis": 4087,
      "Ġsaved": 4088,
      "IMPOSSI": 4089,
      "Swast": 4090,
      "IMPOSSIBLE": 4091,
      "96": 4092,
      ";\\": 4093,
      "EX": 4094,
      "NS": 4095,
      "Orig": 4096,
      "Random": 4097,
      "Sol": 4098,
      "This": 4099,
      "]`": 4100,
      "]],": 4101,
      "bi": 4102,
      "break": 4103,
      "eters": 4104,
      "fl": 4105,
      "fore": 4106,
      "ghest": 4107,
      "kas": 4108,
      "nes": 4109,
      "negative": 4110,
      "oin": 4111,
      "oes": 4112,
      "oTree": 4113,
      "page": 4114,
      "palindrome": 4115,
      "vl": 4116,
      "ys": 4117,
      "yle": 4118,
      "Ġå": 4119,
      "initial": 4120,
      "Ġimag": 4121,
      "Ġcp": 4122,
      "Ġcity": 4123,
      "Ġcities": 4124,
      "Ġreset": 4125,
      "Ġfit": 4126,
      "Ġnormal": 4127,
      "leet": 4128,
      "aring": 4129,
      "around": 4130,
      "Ġskip": 4131,
      "acy": 4132,
      "Ġdr": 4133,
      "Ġoption": 4134,
      "Ġelapsed": 4135,
      "Ġegg": 4136,
      "Ġinclude": 4137,
      "Ġmak": 4138,
      "Ġcont": 4139,
      ">>(": 4140,
      "example": 4141,
      "Ġgives": 4142,
      "Ġsec": 4143,
      "ived": 4144,
      "bridges": 4145,
      "parameters": 4146,
      "conquer": 4147,
      "connected": 4148,
      "ĠCh": 4149,
      "Ġchanged": 4150,
      "ĠGR": 4151,
      "verage": 4152,
      "Ġcoll": 4153,
      "alls": 4154,
      "Ġundirected": 4155,
      "Ġ56": 4156,
      "Ġstringstream": 4157,
      "104": 4158,
      "iller": 4159,
      "Ġada": 4160,
      "Ġsubtract": 4161,
      "1000000": 4162,
      "ĠIndex": 4163,
      "Ġ90": 4164,
      "lice": 4165,
      "Inv": 4166,
      "ourier": 4167,
      "Ġ(!(": 4168,
      "compute": 4169,
      "...\");": 4170,
      "Ġlearning": 4171,
      "ĠSecond": 4172,
      "priority": 4173,
      "creasing": 4174,
      "need": 4175,
      "Ġvariance": 4176,
      "}\\;": 4177,
      "Ġsecondary": 4178,
      "ĠYou": 4179,
      "aves": 4180,
      "Ġobtain": 4181,
      "]='": 4182,
      "0001": 4183,
      "OfC": 4184,
      "Ġheights": 4185,
      "ĠFinding": 4186,
      "Ġsuccessful": 4187,
      "Ġsegtree": 4188,
      "ĠAngle": 4189,
      "ancake": 4190,
      "scan": 4191,
      "integer": 4192,
      "Ġneighbors": 4193,
      "Ġupdates": 4194,
      "Ġcolumn": 4195,
      "OLUM": 4196,
      "Ġvery": 4197,
      "Ġscheduling": 4198,
      "Ġpolynomial": 4199,
      "Ġjumps": 4200,
      "123456789": 4201,
      "diag": 4202,
      "Addition": 4203,
      "Ġswitch": 4204,
      "climits": 4205,
      "$[": 4206,
      "&)": 4207,
      ":\"": 4208,
      "Ar": 4209,
      "Entry": 4210,
      "EightPuzzle": 4211,
      "GRID": 4212,
      "MIN": 4213,
      "Trie": 4214,
      "]/": 4215,
      "`.": 4216,
      "bb": 4217,
      "bs": 4218,
      "bmatrix": 4219,
      "ccesses": 4220,
      "dj": 4221,
      "dok": 4222,
      "faces": 4223,
      "ise": 4224,
      "lan": 4225,
      "non": 4226,
      "source": 4227,
      "square": 4228,
      "tut": 4229,
      "tes": 4230,
      "upt": 4231,
      "vation": 4232,
      "wn": 4233,
      "yQueue": 4234,
      "inite": 4235,
      "rem": 4236,
      "Ġredu": 4237,
      "Ġfw": 4238,
      "Ġfriend": 4239,
      "enable": 4240,
      "delete": 4241,
      "Ġstandard": 4242,
      "uration": 4243,
      "utta": 4244,
      "Ġpalindromic": 4245,
      "Ġsd": 4246,
      "Ġsl": 4247,
      "Ġslow": 4248,
      "Ġsigned": 4249,
      "Ġrm": 4250,
      "esult": 4251,
      "ĠTak": 4252,
      "Ġdb": 4253,
      "Ġeta": 4254,
      "Ġinvalid": 4255,
      "river": 4256,
      "inear": 4257,
      "ĠNO": 4258,
      "Ġconn": 4259,
      "Ġ29": 4260,
      "irograph": 4261,
      "Ġtower": 4262,
      "ower": 4263,
      "imize": 4264,
      "sizeof": 4265,
      "Ġjmp": 4266,
      "(\"~~~~~~~~~~~~~~~~~~~~~~~~~~~~~~~~": 4267,
      "ĠMethod": 4268,
      "ĠmaxM": 4269,
      "ĠCLOCKS": 4270,
      "00001": 4271,
      "Ġkattis": 4272,
      "iltin": 4273,
      "ega": 4274,
      "app": 4275,
      "apple": 4276,
      "Ġ'-": 4277,
      "Ġhits": 4278,
      "Ġextract": 4279,
      "verflow": 4280,
      "Ġ48": 4281,
      "ĠLIM": 4282,
      "Ġclust": 4283,
      "Ġ|=": 4284,
      "Ġalways": 4285,
      "rintf": 4286,
      "Ġadv": 4287,
      "match": 4288,
      "--;)": 4289,
      "Ġcomplete": 4290,
      "Ġprogramming": 4291,
      "ĠOperator": 4292,
      "ĠVis": 4293,
      "eps": 4294,
      "ĠInfo": 4295,
      "Ġhighest": 4296,
      "ĠĠĠĠĠĠĠĠĠĠĠĠĠĠĠĠĠĠĠĠĠĠĠĠĠĠĠĠĠĠĠĠĠĠĠĠĠĠĠĠĠĠ": 4297,
      "Ġlead": 4298,
      "finding": 4299,
      "Ġmiddle": 4300,
      "quest": 4301,
      "Ġbuffer": 4302,
      "sius": 4303,
      "Ġparts": 4304,
      "avid": 4305,
      "ĠUnknown": 4306,
      "solute": 4307,
      "midpoint": 4308,
      "ãĤ¿": 4309,
      "Ġbetter": 4310,
      "bounds": 4311,
      "Ġdirected": 4312,
      "super": 4313,
      "Ġcenter": 4314,
      "Ġcentroid": 4315,
      "Ġoverflow": 4316,
      "Ġsegments": 4317,
      "876": 4318,
      "Ġfprintf": 4319,
      "Ġrepeating": 4320,
      "Prober": 4321,
      "Ġformula": 4322,
      "builtin": 4323,
      "Maximum": 4324,
      "ĠListNode": 4325,
      "uclid": 4326,
      "Ġepsilon": 4327,
      "ĠHere": 4328,
      "good": 4329,
      "Ġwrong": 4330,
      "Ġextend": 4331,
      "Ġschedule": 4332,
      "ĠWorst": 4333,
      "Ġamount": 4334,
      "work": 4335,
      "ĠCircularLinkedList": 4336,
      "Ġholds": 4337,
      "Forward": 4338,
      "*\\*\\": 4339,
      "Ġhouses": 4340,
      "Ġmultiset": 4341,
      "group": 4342,
      "Ġchunk": 4343,
      "Ġcommand": 4344,
      "Ġboolean": 4345,
      "Ġorientation": 4346,
      "Original": 4347,
      "doku": 4348,
      "upta": 4349,
      ";)": 4350,
      "Bits": 4351,
      "CA": 4352,
      "Function": 4353,
      "GL": 4354,
      "KE": 4355,
      "OU": 4356,
      "PA": 4357,
      "Pat": 4358,
      "Pan": 4359,
      "Sh": 4360,
      "XY": 4361,
      "[++": 4362,
      "]>>": 4363,
      "`,": 4364,
      "aiting": 4365,
      "cal": 4366,
      "ced": 4367,
      "elo": 4368,
      "ever": 4369,
      "generate": 4370,
      "ious": 4371,
      "klore": 4372,
      "ling": 4373,
      "mality": 4374,
      "ni": 4375,
      "oe": 4376,
      "ox": 4377,
      "option": 4378,
      "third": 4379,
      "}}},": 4380,
      "rear": 4381,
      "Ġts": 4382,
      "Ġtoupper": 4383,
      "Ġrecurrence": 4384,
      "decrypt": 4385,
      "Ġnth": 4386,
      "Ġneg": 4387,
      "selection": 4388,
      "Ġbl": 4389,
      "Ġbfs": 4390,
      "arSearch": 4391,
      "Ġifstream": 4392,
      "itu": 4393,
      "Ġvolume": 4394,
      "Ġrod": 4395,
      "Ġrate": 4396,
      "Ġlst": 4397,
      "()(": 4398,
      "ĠTwo": 4399,
      "Ġdon": 4400,
      "Ġown": 4401,
      "Ġele": 4402,
      "Ġ\");": 4403,
      "Ġyour": 4404,
      "odo": 4405,
      "Ġoffset": 4406,
      "ĠNo": 4407,
      "olklore": 4408,
      "izer": 4409,
      "ics": 4410,
      "Ġsepar": 4411,
      "ĠSolution": 4412,
      "Ġ300": 4413,
      "igger": 4414,
      "unitTest": 4415,
      "),(": 4416,
      "velocity": 4417,
      "Ġbelow": 4418,
      "Ġiters": 4419,
      "Ġuni": 4420,
      "ĠunitTest": 4421,
      "ĠminR": 4422,
      "Ġdecimal": 4423,
      "startwith": 4424,
      "ĠEmpty": 4425,
      "ĠEuler": 4426,
      "ĠEaster": 4427,
      "Ġprinted": 4428,
      "curacy": 4429,
      "Ġexpression": 4430,
      "ialized": 4431,
      "Ġindexes": 4432,
      "ĠVar": 4433,
      "ĠUsed": 4434,
      "ĠTests": 4435,
      "Ġsuggestions": 4436,
      "insertionSort": 4437,
      "indexes": 4438,
      "ĠĠĠĠĠĠĠĠĠĠĠĠĠĠĠĠĠĠĠĠĠĠĠĠĠĠĠĠĠĠĠĠĠĠĠĠĠ": 4439,
      "Ġ2016": 4440,
      "ĠStore": 4441,
      "ĠStores": 4442,
      "compare": 4443,
      "Ġabsolute": 4444,
      "subarray": 4445,
      "crement": 4446,
      "crete": 4447,
      "Ġmidpoint": 4448,
      "Ġcontained": 4449,
      "ãģĻ": 4450,
      "Power": 4451,
      "argc": 4452,
      "lied": 4453,
      "Ġcomputation": 4454,
      "Ġ1000000007": 4455,
      "angents": 4456,
      "ĠPrinting": 4457,
      "Ġapproximate": 4458,
      "Intialized": 4459,
      "currpos": 4460,
      "jection": 4461,
      "Ġinstead": 4462,
      "Ġsystem": 4463,
      "Ġpropert": 4464,
      "ĠIterator": 4465,
      "ĠArrival": 4466,
      "ĠSTL": 4467,
      "Ġscalar": 4468,
      "Ġidea": 4469,
      "smallest": 4470,
      "Ġprovided": 4471,
      "FAIL": 4472,
      "Ġparallel": 4473,
      "Ġcoefficients": 4474,
      "Ġavailable": 4475,
      "ĠPerform": 4476,
      "reserve": 4477,
      "leetcode": 4478,
      "Pattern": 4479,
      "elogram": 4480,
      ")^": 4481,
      ")->": 4482,
      "*/": 4483,
      "0123456789": 4484,
      "115": 4485,
      "42": 4486,
      "Btree": 4487,
      "Code": 4488,
      "David": 4489,
      "First": 4490,
      "II": 4491,
      "JF": 4492,
      "KGraph": 4493,
      "Run": 4494,
      "Sqrt": 4495,
      "]]);": 4496,
      "ares": 4497,
      "aesar": 4498,
      "bad": 4499,
      "bash": 4500,
      "eig": 4501,
      "evalu": 4502,
      "ford": 4503,
      "gener": 4504,
      "half": 4505,
      "implementation": 4506,
      "night": 4507,
      "place": 4508,
      "schmidt": 4509,
      "tan": 4510,
      "tol": 4511,
      "window": 4512,
      "Ġdefine": 4513,
      "Ġim": 4514,
      "intain": 4515,
      "Ġ*****": 4516,
      "oruv": 4517,
      "Ġcos": 4518,
      "onic": 4519,
      "Ġrecursion": 4520,
      "erat": 4521,
      "det": 4522,
      "atal": 4523,
      "Ġmy": 4524,
      "Ġstri": 4525,
      "Ġnull": 4526,
      "Ġ120": 4527,
      "utation": 4528,
      "heses": 4529,
      "Ġsays": 4530,
      "Ġus": 4531,
      "ito": 4532,
      "Ġlca": 4533,
      "()))": 4534,
      "Ġ\"----": 4535,
      "Ġ-->": 4536,
      "Ġinformation": 4537,
      "hish": 4538,
      "ract": 4539,
      "rabin": 4540,
      "ouse": 4541,
      "Ġ27": 4542,
      "<<'": 4543,
      "exit": 4544,
      "ĠPv": 4545,
      "ĠPuzzle": 4546,
      "Ġgrid": 4547,
      "Ġglob": 4548,
      "nth": 4549,
      "ĠASC": 4550,
      "imized": 4551,
      "unbounded": 4552,
      "adane": 4553,
      "(\"\");": 4554,
      "omb": 4555,
      "Ġ\\;\\": 4556,
      "ĠCan": 4557,
      "00000": 4558,
      "ilar": 4559,
      "iling": 4560,
      "Ġ'(": 4561,
      "Ġ')": 4562,
      "Ġhence": 4563,
      "Ġ[\"": 4564,
      "Ġexception": 4565,
      ")).": 4566,
      "ĠGenerate": 4567,
      "ĠGupta": 4568,
      "loop": 4569,
      "ĠRef": 4570,
      "ĠRange": 4571,
      "])){": 4572,
      "Ġ42": 4573,
      "Ġending": 4574,
      "asy": 4575,
      "ashes": 4576,
      "Ġminima": 4577,
      "ftKarp": 4578,
      "tail": 4579,
      "ĠDFS": 4580,
      "ĠDepth": 4581,
      "ĠDriver": 4582,
      "Ġalice": 4583,
      "readth": 4584,
      "aba": 4585,
      "acter": 4586,
      "ĠKey": 4587,
      "numerical": 4588,
      "Ġnewline": 4589,
      "etitions": 4590,
      "Ġkeys": 4591,
      "ĠVertex": 4592,
      "ofstream": 4593,
      "ĠHow": 4594,
      "epi": 4595,
      "Ġinputs": 4596,
      "Ġprimary": 4597,
      "addBinary": 4598,
      "complete": 4599,
      "ĠaddEdge": 4600,
      "Ġtrain": 4601,
      "primary": 4602,
      "Ġlogs": 4603,
      "traverse": 4604,
      "ãģ«": 4605,
      "structure": 4606,
      "501": 4607,
      "fibo": 4608,
      "coded": 4609,
      ">({-": 4610,
      "box": 4611,
      "Ġ100000": 4612,
      "ĠChecks": 4613,
      "ĠAdds": 4614,
      "Ġgood": 4615,
      "grees": 4616,
      "anced": 4617,
      "buf": 4618,
      "binaryAddition": 4619,
      "childs": 4620,
      "Ġneighbour": 4621,
      "ĠMinimum": 4622,
      "unionSet": 4623,
      "variance": 4624,
      "Ġdenoting": 4625,
      "ĠIterative": 4626,
      "Ġratios": 4627,
      "ĠLeal": 4628,
      "termine": 4629,
      "Ġglut": 4630,
      "Ġallows": 4631,
      "ĠExpected": 4632,
      "ĠCalling": 4633,
      "ĠNew": 4634,
      "quesito": 4635,
      "Ġâī": 4636,
      "Ġcondition": 4637,
      "Ġtolerance": 4638,
      "umulative": 4639,
      "OWS": 4640,
      "postfix": 4641,
      "Ġaugmenting": 4642,
      "ĠNOT": 4643,
      "KEY": 4644,
      "Panquesito": 4645,
      "optional": 4646,
      "itude": 4647,
      "eratosthenes": 4648,
      "\".": 4649,
      "$)": 4650,
      ")=": 4651,
      "41": 4652,
      "83": 4653,
      "AD": 4654,
      "Ass": 4655,
      "Dis": 4656,
      "Flo": 4657,
      "Find": 4658,
      "Fourier": 4659,
      "IO": 4660,
      "LA": 4661,
      "Le": 4662,
      "LIM": 4663,
      "Left": 4664,
      "One": 4665,
      "PHA": 4666,
      "PDAT": 4667,
      "RAND": 4668,
      "SB": 4669,
      "Tra": 4670,
      "Xor": 4671,
      "[\\": 4672,
      "[{": 4673,
      "aj": 4674,
      "agraph": 4675,
      "ee": 4676,
      "fa": 4677,
      "fill": 4678,
      "fact": 4679,
      "fabs": 4680,
      "fenwick": 4681,
      "gray": 4682,
      "hr": 4683,
      "hits": 4684,
      "lc": 4685,
      "oing": 4686,
      "scription": 4687,
      "todo": 4688,
      "what": 4689,
      "~\");": 4690,
      "¹ãĥ": 4691,
      "æĹ": 4692,
      "ĨãĤ": 4693,
      "Ġtrees": 4694,
      "Ġax": 4695,
      "Ġavoid": 4696,
      "Ġaverage": 4697,
      "Ġcmp": 4698,
      "Ġcircular": 4699,
      "Ġrever": 4700,
      "erg": 4701,
      "Ġfabs": 4702,
      "determinant": 4703,
      "Ġstable": 4704,
      "Ġstick": 4705,
      "Ġny": 4706,
      "Ġbs": 4707,
      "lear": 4708,
      "Ġpy": 4709,
      "Ġpred": 4710,
      "hell": 4711,
      "Ġsimp": 4712,
      "Ġsatis": 4713,
      "Ġ//!": 4714,
      "alves": 4715,
      "Ġlc": 4716,
      "Ġlcp": 4717,
      "Ġlittle": 4718,
      "anning": 4719,
      "Ġxa": 4720,
      "Ġdq": 4721,
      "Ġdat": 4722,
      "Ġom": 4723,
      "ssens": 4724,
      "Ġmaintain": 4725,
      "Ġconf": 4726,
      "Ġconv": 4727,
      "izont": 4728,
      "idual": 4729,
      "ĠAl": 4730,
      "Ġmodified": 4731,
      "Ġmodmul": 4732,
      "Ġassum": 4733,
      "Ġassigned": 4734,
      "ĠSte": 4735,
      "Ġtestcase": 4736,
      "--\"": 4737,
      "ĠMultip": 4738,
      "ĠCur": 4739,
      "\",&": 4740,
      "Ġ'*": 4741,
      "Ġ'+": 4742,
      "quot": 4743,
      "Ġham": 4744,
      "Ġhalves": 4745,
      "lineDist": 4746,
      "Ġ45": 4747,
      "Ġ47": 4748,
      "ĠINIT": 4749,
      "ĠFA": 4750,
      "ĠFIN": 4751,
      "ĠLo": 4752,
      "ptic": 4753,
      "Ġdecl": 4754,
      "Ġdeep": 4755,
      "Ġdepend": 4756,
      "102": 4757,
      "107": 4758,
      "ructure": 4759,
      "Ġprints": 4760,
      "Ġprinting": 4761,
      "maton": 4762,
      "Ġ101": 4763,
      "etric": 4764,
      "ĠOn": 4765,
      "process": 4766,
      "1001": 4767,
      "ĠValues": 4768,
      "Ġbytes": 4769,
      "ĠUlf": 4770,
      "ĠUPDAT": 4771,
      "emo": 4772,
      "ĠInorder": 4773,
      "Invalid": 4774,
      "120": 4775,
      "Ġprice": 4776,
      "ĠĠĠĠĠĠĠĠĠĠĠĠĠĠĠĠĠĠĠĠĠĠĠĠĠĠĠĠĠĠĠĠĠ": 4777,
      "ĠĠĠĠĠĠĠĠĠĠĠĠĠĠĠĠĠĠĠĠĠĠĠĠĠĠĠĠĠĠĠĠĠĠĠĠĠĠĠĠ": 4778,
      "2020": 4779,
      "rown": 4780,
      "toa": 4781,
      "aystar": 4782,
      "ĠhashFxn": 4783,
      "edgeID": 4784,
      "logo": 4785,
      "crease": 4786,
      "Ġinsertion": 4787,
      "wered": 4788,
      "Ġperf": 4789,
      "Ġ1234": 4790,
      "Ġoutputs": 4791,
      "Second": 4792,
      "Ġcreates": 4793,
      "sols": 4794,
      "ãĤ³ãĥ": 4795,
      "ipher": 4796,
      "ĠmergeSort": 4797,
      "Ġhigher": 4798,
      "clockwise": 4799,
      "uggestions": 4800,
      "ĠDelete": 4801,
      "Ġindic": 4802,
      "polygonCenter": 4803,
      "Ġaccuracy": 4804,
      "lliptic": 4805,
      "ĠQuery": 4806,
      "igenere": 4807,
      "Ġwrite": 4808,
      "Ġpredicted": 4809,
      "Ġrotation": 4810,
      "Ġconsist": 4811,
      "allocate": 4812,
      "exponential": 4813,
      "Ġideal": 4814,
      "centres": 4815,
      "Ġcombine": 4816,
      "Ġevents": 4817,
      "³ãĥĨãĤ": 4818,
      "Ġmoney": 4819,
      "choose": 4820,
      "Ġbasic": 4821,
      "Ġgroups": 4822,
      "Algorithms": 4823,
      "raphic": 4824,
      "exists": 4825,
      "ĠSolve": 4826,
      "abcdefg": 4827,
      "opcro": 4828,
      "EXIT": 4829,
      "InvSqrt": 4830,
      "(\"~~~~~~~~~~~~~~~~~~~~~~~~~~~~~~~~~~~~~~~~~~~~~~~~~~~~~~~~~~~~~~~~": 4831,
      "XYZ": 4832,
      "FourierTransform": 4833,
      "¹ãĥĪ": 4834,
      "æĹ¥": 4835,
      "ĠFINISH": 4836,
      "ĠUPDATE": 4837,
      "ãĤ³ãĥ³ãĥĨãĤ": 4838,
      "ãĤ³ãĥ³ãĥĨãĤ¹ãĥĪ": 4839,
      "$(": 4840,
      ")$.": 4841,
      "312": 4842,
      "91": 4843,
      "Fault": 4844,
      "Flip": 4845,
      "Ind": 4846,
      "Knapsack": 4847,
      "Log": 4848,
      "Names": 4849,
      "NUM": 4850,
      "PAS": 4851,
      "Rta": 4852,
      "Sp": 4853,
      "Small": 4854,
      "SHA": 4855,
      "URE": 4856,
      "VE": 4857,
      "[\"": 4858,
      "]%": 4859,
      "]<=": 4860,
      "aze": 4861,
      "bonacci": 4862,
      "dimension": 4863,
      "eating": 4864,
      "fft": 4865,
      "grid": 4866,
      "ire": 4867,
      "junction": 4868,
      "lcp": 4869,
      "laced": 4870,
      "lvin": 4871,
      "ml": 4872,
      "mark": 4873,
      "ndef": 4874,
      "oper": 4875,
      "opt": 4876,
      "pdf": 4877,
      "rot": 4878,
      "som": 4879,
      "sync": 4880,
      "surface": 4881,
      "xFF": 4882,
      "æº": 4883,
      "Ġhttp": 4884,
      "Ġerr": 4885,
      "Ġutility": 4886,
      "Ģè": 4887,
      "strom": 4888,
      "Ġith": 4889,
      "Ġign": 4890,
      "Ġtc": 4891,
      "Ġfar": 4892,
      "Ġnaive": 4893,
      "sec": 4894,
      "separ": 4895,
      "Ġborder": 4896,
      "Ġbrid": 4897,
      "ley": 4898,
      "aran": 4899,
      "hello": 4900,
      "Ġsurface": 4901,
      "alk": 4902,
      "Ġtheta": 4903,
      "()+": 4904,
      "()<<": 4905,
      "ĠTr": 4906,
      "ĠType": 4907,
      "Ġdst": 4908,
      "Ġdate": 4909,
      "Ġ@{": 4910,
      "Ġevert": 4911,
      "Ġeuler": 4912,
      "Ġetc": 4913,
      "Ġinc": 4914,
      "Ġinside": 4915,
      "Ġinner": 4916,
      "ently": 4917,
      "Ġanswered": 4918,
      "exact": 4919,
      "show": 4920,
      "ĠAs": 4921,
      "Ġmodul": 4922,
      "Ġisprime": 4923,
      "acktracking": 4924,
      "iggle": 4925,
      "iguous": 4926,
      "Ġarbit": 4927,
      "ĠĠĠĠĠĠĠĠĠĠĠĠĠĠĠĠĠĠĠĠĠĠĠĠĠĠĠĠĠĠĠĠĠĠĠ": 4928,
      "adius": 4929,
      "Ġmaxflow": 4930,
      "ctionary": 4931,
      "ĠCode": 4932,
      "000000": 4933,
      "ilton": 4934,
      "phab": 4935,
      "apes": 4936,
      "appy": 4937,
      "Ġhow": 4938,
      "minima": 4939,
      "ĠRandom": 4940,
      "Ġcop": 4941,
      "Ġcoordinates": 4942,
      "ĠBacktracking": 4943,
      "ĠFinal": 4944,
      "ifndef": 4945,
      "ĠLund": 4946,
      "Ġdesc": 4947,
      "Ġdecomposition": 4948,
      "rufer": 4949,
      "Ġqr": 4950,
      "ĠcurL": 4951,
      "Ġcurve": 4952,
      "Ġexplo": 4953,
      "Ġgraphs": 4954,
      "Ġprocessed": 4955,
      "comb": 4956,
      "comte": 4957,
      "ĠKnn": 4958,
      "nums": 4959,
      "ĠOver": 4960,
      "prop": 4961,
      "Ġheuristic": 4962,
      "ĠWindow": 4963,
      "ĠHLD": 4964,
      "Ġshapes": 4965,
      "Ġinitially": 4966,
      "strlen": 4967,
      "Ġabort": 4968,
      "Ġintermedi": 4969,
      "Ġtriple": 4970,
      "ĠComputes": 4971,
      "nearest": 4972,
      "ĠdeleteList": 4973,
      "Ġfloating": 4974,
      "MinCut": 4975,
      "Ġprod": 4976,
      "Ġdictionary": 4977,
      "Ġtopological": 4978,
      "Ġentire": 4979,
      "Ġlowercase": 4980,
      "Ġsegmented": 4981,
      "wards": 4982,
      "ĠProblem": 4983,
      "angular": 4984,
      "5432": 4985,
      "hood": 4986,
      "ographic": 4987,
      "Ġfeature": 4988,
      "Ġindices": 4989,
      "Ġraised": 4990,
      "Ġassignment": 4991,
      "rror": 4992,
      "product": 4993,
      "ĠHeight": 4994,
      "ordinate": 4995,
      "Ġpropag": 4996,
      "Ġbrute": 4997,
      "hattan": 4998,
      "vailArray": 4999,
      "Ġextended": 5000,
      "ĠUpd": 5001,
      "Ġregression": 5002,
      "solutions": 5003,
      "Ġaux": 5004,
      "Ġfinished": 5005,
      "Ġterms": 5006,
      "Ġevent": 5007,
      "Ġcoeffs": 5008,
      "ĠOtherwise": 5009,
      "Ġbasis": 5010,
      "Ġhandle": 5011,
      "ĠApply": 5012,
      "Ġlookup": 5013,
      "Ġdefinition": 5014,
      "simpson": 5015,
      "ircumcircle": 5016,
      "Successor": 5017,
      "model": 5018,
      "ĠCalculates": 5019,
      "Ġsliding": 5020,
      "Ġconnect": 5021,
      "ĠVisual": 5022,
      "FAILURE": 5023,
      "atalan": 5024,
      "Ġbridges": 5025,
      "phabet": 5026,
      "ĠLundstrom": 5027,
      "Ġintermediate": 5028,
      "*}{": 5029,
      "124": 5030,
      "520": 5031,
      "65": 5032,
      "72": 5033,
      "AA": 5034,
      "After": 5035,
      "DE": 5036,
      "DP": 5037,
      "Dict": 5038,
      "Ed": 5039,
      "Front": 5040,
      "Fail": 5041,
      "Is": 5042,
      "Mon": 5043,
      "Sa": 5044,
      "Totient": 5045,
      "Wor": 5046,
      "ai": 5047,
      "ba": 5048,
      "bipartite": 5049,
      "cmp": 5050,
      "cending": 5051,
      "day": 5052,
      "fp": 5053,
      "gen": 5054,
      "have": 5055,
      "knapsack": 5056,
      "narray": 5057,
      "oci": 5058,
      "precision": 5059,
      "padded": 5060,
      "sm": 5061,
      "same": 5062,
      "shift": 5063,
      "saddleback": 5064,
      "vp": 5065,
      "win": 5066,
      "whi": 5067,
      "xN": 5068,
      "xy": 5069,
      "yd": 5070,
      "ySt": 5071,
      "}^{": 5072,
      "º¦": 5073,
      "åº¦": 5074,
      "Ġ);": 5075,
      "Ġ89": 5076,
      "style": 5077,
      "reg": 5078,
      "Ġ*);": 5079,
      "orig": 5080,
      "Ġclean": 5081,
      "llman": 5082,
      "==(": 5083,
      "erator": 5084,
      "Ġfolklore": 5085,
      "deep": 5086,
      "Ġmh": 5087,
      "Ġmex": 5088,
      "Ġstuff": 5089,
      "Ġnx": 5090,
      "urther": 5091,
      "arvis": 5092,
      "aratsuba": 5093,
      "heavy": 5094,
      "Ġsink": 5095,
      "Ġsizes": 5096,
      "itMedian": 5097,
      "Ġvect": 5098,
      "Ġround": 5099,
      "alid": 5100,
      "anges": 5101,
      "ĠTh": 5102,
      "Ġos": 5103,
      "Ġ@}": 5104,
      "Ġ\"--": 5105,
      "Ġ\"\");": 5106,
      "icular": 5107,
      "ĠAnd": 5108,
      "ĠAvailArray": 5109,
      "Ġmodify": 5110,
      "Ġsee": 5111,
      "Ġassoci": 5112,
      "ĠSG": 5113,
      "ĠSan": 5114,
      "ĠSize": 5115,
      "Ġ33": 5116,
      "Ġ37": 5117,
      "Ġ38": 5118,
      "Ġmainlist": 5119,
      "thing": 5120,
      "ĠCho": 5121,
      "pherical": 5122,
      "apley": 5123,
      "Ġ'?": 5124,
      "lineIntersection": 5125,
      "ĠRBtree": 5126,
      "Ġ41": 5127,
      "ĠBubble": 5128,
      "ĠLi": 5129,
      "ĠLet": 5130,
      "Ġdeque": 5131,
      "ĠDist": 5132,
      "ĠDijkstra": 5133,
      "Ġalphabet": 5134,
      "ĠcurR": 5135,
      "ĠEuclidean": 5136,
      "mplementations": 5137,
      "curve": 5138,
      "Ġpointing": 5139,
      "Ġswapped": 5140,
      "Ġeds": 5141,
      "Ġprojectile": 5142,
      "combin": 5143,
      "ĠKnapsack": 5144,
      "146": 5145,
      "Ġdivision": 5146,
      "coef": 5147,
      "Ġstructures": 5148,
      "ĠfindSet": 5149,
      "user": 5150,
      "ĠWhi": 5151,
      "ĠWikipedia": 5152,
      "ĠHKGraph": 5153,
      "Ġsolved": 5154,
      "Ġsure": 5155,
      "ĠstackB": 5156,
      "tainer": 5157,
      "Ġruns": 5158,
      "cols": 5159,
      "Ġinterpolation": 5160,
      "Ġparagraph": 5161,
      "Ġrepresentative": 5162,
      "frequency": 5163,
      "Ġdiscard": 5164,
      "Ġfloors": 5165,
      "Ġpatterns": 5166,
      "Ġcombin": 5167,
      "olden": 5168,
      "elper": 5169,
      "Ġdijkstra": 5170,
      "Ġgeneral": 5171,
      "Ġgenerator": 5172,
      "leting": 5173,
      "implicit": 5174,
      "ĠExit": 5175,
      "Ġcallback": 5176,
      "Ġtopmost": 5177,
      "series": 5178,
      "TheAlgorithms": 5179,
      "Ġmanipulation": 5180,
      "ĠInserts": 5181,
      "ĠMAXN": 5182,
      "Problem": 5183,
      "disjunction": 5184,
      "Ġcalculating": 5185,
      "ratosthenes": 5186,
      "ika": 5187,
      "Ġdivides": 5188,
      "HAR": 5189,
      "ĠTestCases": 5190,
      "salesman": 5191,
      "Ġtermin": 5192,
      "Ġworking": 5193,
      "Ġdivisors": 5194,
      "REA": 5195,
      "Ġplaced": 5196,
      "Ġdegree": 5197,
      "BinaryTree": 5198,
      "Ġpolygons": 5199,
      "blocks": 5200,
      "âĢĵ": 5201,
      "Ġratio": 5202,
      "largest": 5203,
      "choice": 5204,
      "Ashish": 5205,
      "ĠSuffix": 5206,
      "moore": 5207,
      "calculate": 5208,
      "partition": 5209,
      "eqnarray": 5210,
      "Initi": 5211,
      "Ġneighborhood": 5212,
      "Ġtomb": 5213,
      "convexHull": 5214,
      "Ġreached": 5215,
      "Ġsimilar": 5216,
      "lanation": 5217,
      "8765432": 5218,
      "ĠASCII": 5219,
      "ĠRefe": 5220,
      "ĠHowever": 5221,
      "izontal": 5222,
      "ãĤ³ãĥ³ãĥĨãĤ¹ãĥĪãģ®": 5223,
      "Ġmodulus": 5224,
      "*)": 5225,
      ",(": 5226,
      ".)": 5227,
      "112": 5228,
      "<(": 5229,
      "<>": 5230,
      ">[": 5231,
      "Auto": 5232,
      "BET": 5233,
      "CB": 5234,
      "Error": 5235,
      "Found": 5236,
      "Longest": 5237,
      "LCM": 5238,
      "LRU": 5239,
      "MQ": 5240,
      "Row": 5241,
      "Rotate": 5242,
      "RKEY": 5243,
      "SA": 5244,
      "Suggestions": 5245,
      "Th": 5246,
      "Tangents": 5247,
      "Vertex": 5248,
      "]$": 5249,
      "aoTree": 5250,
      "carlo": 5251,
      "ek": 5252,
      "gument": 5253,
      "ka": 5254,
      "lu": 5255,
      "lines": 5256,
      "ms": 5257,
      "mu": 5258,
      "my": 5259,
      "mult": 5260,
      "nf": 5261,
      "nx": 5262,
      "pool": 5263,
      "pred": 5264,
      "rt": 5265,
      "ram": 5266,
      "sat": 5267,
      "ts": 5268,
      "ually": 5269,
      "uaran": 5270,
      "wildcard": 5271,
      "ya": 5272,
      "{(": 5273,
      "{\\": 5274,
      "}$": 5275,
      "}});": 5276,
      "¤ãĥ": 5277,
      "Ġquer": 5278,
      "Ġgeometry": 5279,
      "ince": 5280,
      "inition": 5281,
      "inbounds": 5282,
      "recursion": 5283,
      "remainder": 5284,
      "Ġtrib": 5285,
      "Ġtask": 5286,
      "Ġ*(": 5287,
      "Ġ*>": 5288,
      "Ġ},": 5289,
      "Ġcll": 5290,
      "Ġ{}\\": 5291,
      "Ġreversal": 5292,
      "erner": 5293,
      "Ġfl": 5294,
      "Ġfox": 5295,
      "Ġfurther": 5296,
      "enqueue": 5297,
      "enQueue": 5298,
      "Ġmorse": 5299,
      "Ġmiller": 5300,
      "Ġmerg": 5301,
      "Ġstill": 5302,
      "uring": 5303,
      "urand": 5304,
      "Ġbin": 5305,
      "Ġbrown": 5306,
      "Ġph": 5307,
      "Ġpie": 5308,
      "Ġplay": 5309,
      "Ġpresence": 5310,
      "ings": 5311,
      "Ġshell": 5312,
      "itDist": 5313,
      "alanced": 5314,
      "amn": 5315,
      "amed": 5316,
      "Ġld": 5317,
      "Ġlis": 5318,
      "Ġlies": 5319,
      "Ġlvl": 5320,
      "Ġforth": 5321,
      "any": 5322,
      "++);": 5323,
      "++];": 5324,
      "Ġdou": 5325,
      "Ġode": 5326,
      "Ġest": 5327,
      "Ġ\"(\"": 5328,
      "Ġ\"..": 5329,
      "Ġ\"~\");": 5330,
      "Ġ-(": 5331,
      "Ġws": 5332,
      "Ġwin": 5333,
      "Ġwhole": 5334,
      "Ġinversion": 5335,
      "umulate": 5336,
      "Ġyear": 5337,
      "Ġconquer": 5338,
      "default": 5339,
      "otal": 5340,
      "except": 5341,
      "ĠPrime": 5342,
      "ĠAfter": 5343,
      "ĠSimple": 5344,
      "ĠSHA": 5345,
      "ĠSCC": 5346,
      "ĠSJF": 5347,
      "ĠSince": 5348,
      "html": 5349,
      "ival": 5350,
      "ortoi": 5351,
      "ĠĠĠĠĠĠĠĠĠĠĠĠĠĠĠĠĠĠĠĠĠĠĠĠĠĠĠĠĠĠĠĠĠĠĠĠĠĠĠ": 5352,
      "Ġchrono": 5353,
      "maxflow": 5354,
      "Ġnumeric": 5355,
      "Ġ'<": 5356,
      "resolution": 5357,
      "expression": 5358,
      "Ġha": 5359,
      "Ġthus": 5360,
      "Ġexce": 5361,
      "ĠGoing": 5362,
      "Ġ49": 5363,
      "Ġ!(": 5364,
      "asic": 5365,
      "ascal": 5366,
      "Ġdescription": 5367,
      "ĠDiv": 5368,
      "999": 5369,
      "oplus": 5370,
      "103": 5371,
      "condition": 5372,
      "Ġdpl": 5373,
      "ively": 5374,
      "Ġexplore": 5375,
      "abbreviation": 5376,
      "Ġcompletion": 5377,
      "lain": 5378,
      "comm": 5379,
      "coin": 5380,
      "Ġ76": 5381,
      "Ġsubse": 5382,
      "Testing": 5383,
      "Ġhel": 5384,
      "Ġheavy": 5385,
      "Ġindexed": 5386,
      "Ġbytest": 5387,
      "repeating": 5388,
      "ĠexpectedOutput": 5389,
      "Ġsoln": 5390,
      "Ġ98": 5391,
      "Ġleftmost": 5392,
      "lexic": 5393,
      "Ġ2017": 5394,
      "addto": 5395,
      "ĠStructures": 5396,
      "Ġaddress": 5397,
      "character": 5398,
      "INE": 5399,
      "floating": 5400,
      "Ġleaf": 5401,
      "Ġleaves": 5402,
      "edgecnt": 5403,
      "Ġbitonic": 5404,
      "Ġdog": 5405,
      "Ġdoing": 5406,
      "Ġtrials": 5407,
      "Ġiterate": 5408,
      "ĠCompare": 5409,
      "adjList": 5410,
      "Ġcorner": 5411,
      "ĠwordDict": 5412,
      "Selection": 5413,
      "ĠUnion": 5414,
      "solver": 5415,
      "Ġmember": 5416,
      "ãĤ¤ãĥ": 5417,
      "stackA": 5418,
      "Ġgenerated": 5419,
      "success": 5420,
      "]-'": 5421,
      "Ġcalling": 5422,
      "ĠConvert": 5423,
      "Ġchilds": 5424,
      "ĠSorted": 5425,
      "uggest": 5426,
      "Ġqueen": 5427,
      "Ġbob": 5428,
      "ighbor": 5429,
      ">({.": 5430,
      "paths": 5431,
      "problemset": 5432,
      "Ġcorrectly": 5433,
      "Ġ1000000": 5434,
      "ATH": 5435,
      "Ġfailure": 5436,
      "fermat": 5437,
      "inside": 5438,
      "PuzzleInfo": 5439,
      "Ġadjacent": 5440,
      "Ġdifference": 5441,
      "intersection": 5442,
      "Ġmovies": 5443,
      "mmetric": 5444,
      "polygonArea": 5445,
      "cdots": 5446,
      "Ġ'.';": 5447,
      "memo": 5448,
      "Ġdirty": 5449,
      "ĠTraverse": 5450,
      "Ġparameters": 5451,
      "ChaoTree": 5452,
      "Ġiteratively": 5453,
      "elevation": 5454,
      "Ġ/*******************************************************************************": 5455,
      "Ġregion": 5456,
      "Ġtuples": 5457,
      "Ġtraversed": 5458,
      "Ġbecome": 5459,
      "Ġ'#')": 5460,
      "Comp": 5461,
      "Ġimpro": 5462,
      "Ġmuch": 5463,
      "Checking": 5464,
      "totalSize": 5465,
      "Ġgroup": 5466,
      "MinimumEdge": 5467,
      "FastFourierTransform": 5468,
      "karatsuba": 5469,
      "ness": 5470,
      "Ġimaginary": 5471,
      "Ġmakes": 5472,
      "Ġcontiguous": 5473,
      "OLUMNS": 5474,
      "Ġcommandline": 5475,
      "oruvkas": 5476,
      ">({-.": 5477,
      "Assert": 5478,
      "ĠStep": 5479,
      "ĠMultiply": 5480,
      "ĠCurrent": 5481,
      "ĠFAIL": 5482,
      "ographically": 5483,
      "xyz": 5484,
      "yStarSearch": 5485,
      "phericalDistance": 5486,
      "ĠLiChaoTree": 5487,
      "Autocomplete": 5488,
      "uarante": 5489,
      "ortoise": 5490,
      "addtogroup": 5491,
      "&](": 5492,
      "'};": 5493,
      ")]);": 5494,
      "130": 5495,
      "136": 5496,
      "2000": 5497,
      "300": 5498,
      "450": 5499,
      "81": 5500,
      ":;": 5501,
      ";++": 5502,
      "At": 5503,
      "Com": 5504,
      "Cli": 5505,
      "DEF": 5506,
      "Equ": 5507,
      "Eight": 5508,
      "Hill": 5509,
      "Mo": 5510,
      "Merge": 5511,
      "Method": 5512,
      "PP": 5513,
      "Rel": 5514,
      "SV": 5515,
      "Sat": 5516,
      "Score": 5517,
      "[*": 5518,
      "]};": 5519,
      "_(": 5520,
      "_)": 5521,
      "aded": 5522,
      "bly": 5523,
      "blog": 5524,
      "carry": 5525,
      "cumulative": 5526,
      "down": 5527,
      "dbl": 5528,
      "far": 5529,
      "free": 5530,
      "four": 5531,
      "ioman": 5532,
      "lmn": 5533,
      "net": 5534,
      "oge": 5535,
      "oval": 5536,
      "sieve": 5537,
      "svg": 5538,
      "sphericalDistance": 5539,
      "vity": 5540,
      "warning": 5541,
      "wxyz": 5542,
      "zeros": 5543,
      "}$.": 5544,
      "éĸ": 5545,
      "Ġlexic": 5546,
      "inq": 5547,
      "inity": 5548,
      "stuv": 5549,
      "reset": 5550,
      "ĠaMin": 5551,
      "Ġ***": 5552,
      "Ġ(_": 5553,
      "ern": 5554,
      "Ġfu": 5555,
      "Ġmis": 5556,
      "Ġstream": 5557,
      "Ġnj": 5558,
      "Ġbad": 5559,
      "Ġbubble": 5560,
      "less": 5561,
      "urnaround": 5562,
      "Ġpf": 5563,
      "Ġprufer": 5564,
      "Ġro": 5565,
      "Ġru": 5566,
      "Ġlu": 5567,
      "()*": 5568,
      "ĠTable": 5569,
      "ĠTake": 5570,
      "Ġdimension": 5571,
      "osing": 5572,
      "Ġek": 5573,
      "Ġelim": 5574,
      "single": 5575,
      "Ġteam": 5576,
      "umar": 5577,
      "hijk": 5578,
      "ravity": 5579,
      "Ġya": 5580,
      "Ġmade": 5581,
      "Ġmaze": 5582,
      "cluding": 5583,
      "atest": 5584,
      "otion": 5585,
      "exception": 5586,
      "Ġgravity": 5587,
      "ĠArr": 5588,
      "ĠAdj": 5589,
      "ĠSo": 5590,
      "ĠSwap": 5591,
      "(\"\\": 5592,
      "ĠMD": 5593,
      "ĠMem": 5594,
      "ĠMove": 5595,
      "ĠMachine": 5596,
      "ĠMCM": 5597,
      "omory": 5598,
      "Ġknow": 5599,
      "ilt": 5600,
      "ĠgetSize": 5601,
      "Ġnumerator": 5602,
      "quadratic": 5603,
      "Ġthose": 5604,
      "loaded": 5605,
      "ĠBloom": 5606,
      "ason": 5607,
      "ĠFenwick": 5608,
      "Ġminimal": 5609,
      "ĠLu": 5610,
      "ĠLeft": 5611,
      "Ġmathematical": 5612,
      "Ġdegrees": 5613,
      "ruction": 5614,
      "opqr": 5615,
      "Ġsums": 5616,
      "ĠsumXor": 5617,
      "ĠEach": 5618,
      "Ġnet": 5619,
      "154": 5620,
      "157": 5621,
      "1515": 5622,
      "Ġexpect": 5623,
      "abcd": 5624,
      "abab": 5625,
      "active": 5626,
      "Ġcompleted": 5627,
      "Ġproper": 5628,
      "Ġimplemented": 5629,
      "145": 5630,
      "Ġchars": 5631,
      "ĠOpen": 5632,
      "Ġ78": 5633,
      "Ġascending": 5634,
      "Ġsubvector": 5635,
      "ĠHence": 5636,
      "ĠsetSize": 5637,
      "ĠnCr": 5638,
      "InConvex": 5639,
      "ground": 5640,
      "ĠĠĠĠĠĠĠĠĠĠĠĠĠĠĠĠĠĠĠĠĠĠĠĠĠĠĠĠĠĠĠĠĠĠĠĠ": 5641,
      "ĠstrSet": 5642,
      "compose": 5643,
      "Ġadds": 5644,
      "ants": 5645,
      "Ġ1001": 5646,
      "subsequence": 5647,
      "111": 5648,
      "118": 5649,
      "ĠSelection": 5650,
      "pointInConvex": 5651,
      "logn": 5652,
      "findMinimumEdge": 5653,
      "Ġrunning": 5654,
      "ferent": 5655,
      "Ġbuilt": 5656,
      "Ġseconds": 5657,
      "Ġcalculation": 5658,
      "ãģ¦": 5659,
      "Ġsplay": 5660,
      "Ġsphere": 5661,
      "Ġremoval": 5662,
      ")\\\\": 5663,
      "Ġcylinder": 5664,
      "Ġprv": 5665,
      "force": 5666,
      "letes": 5667,
      "ĠCons": 5668,
      "ĠContains": 5669,
      "Ġqueens": 5670,
      "Ġbox": 5671,
      "orspool": 5672,
      "boyer": 5673,
      "Ġzeroes": 5674,
      "Ġinfinite": 5675,
      "333": 5676,
      "ferred": 5677,
      "ĠInsertion": 5678,
      "higher": 5679,
      "Ġgoing": 5680,
      "Ġgoes": 5681,
      "Ġfew": 5682,
      "Ġrepeated": 5683,
      "greedy": 5684,
      "functional": 5685,
      "Ġexponential": 5686,
      "sched": 5687,
      "ĠShortest": 5688,
      "polygons": 5689,
      "cycles": 5690,
      "INFINITY": 5691,
      "Ġcomparing": 5692,
      "Ġfiles": 5693,
      "Ġ'.'": 5694,
      "ĠGetting": 5695,
      "prod": 5696,
      "Ġdivisible": 5697,
      "efficients": 5698,
      "Ġdifferential": 5699,
      "ĠQuick": 5700,
      "Subset": 5701,
      "Chain": 5702,
      "Ġboundary": 5703,
      "centroid": 5704,
      "Ġselected": 5705,
      ",\\,": 5706,
      "ĠtolowerRoman": 5707,
      "Ġdetected": 5708,
      "ciphers": 5709,
      "neighbor": 5710,
      "Ġparallelogram": 5711,
      "Ġlocation": 5712,
      "Cyclic": 5713,
      "sparsetable": 5714,
      "permutation": 5715,
      "Ġoccur": 5716,
      "Ġidentical": 5717,
      "Ġderived": 5718,
      "divisors": 5719,
      "Ġleading": 5720,
      "ãĤ¿ãĤ¤ãĥ": 5721,
      "ĠtoupperRoman": 5722,
      "ĠTwoSat": 5723,
      "Ġproperty": 5724,
      "Running": 5725,
      "generation": 5726,
      "Ġâī¤": 5727,
      "Disjoint": 5728,
      "Ġdepending": 5729,
      "abcdefghijk": 5730,
      "opcroftKarp": 5731,
      "PASS": 5732,
      "Ġexplored": 5733,
      "Ġstuffed": 5734,
      "ãĤ³ãĥ³ãĥĨãĤ¹ãĥĪãģ®ãĤ¿ãĤ¤ãĥ": 5735,
      "Ġdoubly": 5736,
      "insidePolygon": 5737,
      "Relabel": 5738,
      "iomanip": 5739,
      "lmnopqr": 5740,
      "Ġlexicographically": 5741,
      "stuvwxyz": 5742,
      "ĠMCMF": 5743,
      "pointInConvexPolygon": 5744,
      "abcdefghijklmnopqr": 5745,
      "ãĤ³ãĥ³ãĥĨãĤ¹ãĥĪãģ®ãĤ¿ãĤ¤ãĥķ": 5746,
      "abcdefghijklmnopqrstuvwxyz": 5747,
      ",&": 5748,
      "384": 5749,
      "500": 5750,
      "69": 5751,
      "817": 5752,
      ">();": 5753,
      "Base": 5754,
      "BST": 5755,
      "Cta": 5756,
      "Copy": 5757,
      "Circular": 5758,
      "Does": 5759,
      "En": 5760,
      "Easter": 5761,
      "Foc": 5762,
      "Failed": 5763,
      "Ge": 5764,
      "Hu": 5765,
      "MST": 5766,
      "MSC": 5767,
      "ON": 5768,
      "Parent": 5769,
      "Result": 5770,
      "Same": 5771,
      "Tnode": 5772,
      "VER": 5773,
      "Values": 5774,
      "XX": 5775,
      "[!": 5776,
      "[])": 5777,
      "]:": 5778,
      "]{": 5779,
      "^(": 5780,
      "bed": 5781,
      "border": 5782,
      "bptr": 5783,
      "cate": 5784,
      "cstdio": 5785,
      "circumcircle": 5786,
      "ered": 5787,
      "fac": 5788,
      "filter": 5789,
      "game": 5790,
      "hand": 5791,
      "ians": 5792,
      "jose": 5793,
      "join": 5794,
      "kk": 5795,
      "karp": 5796,
      "lid": 5797,
      "lot": 5798,
      "loring": 5799,
      "ny": 5800,
      "nal": 5801,
      "npos": 5802,
      "nemo": 5803,
      "omp": 5804,
      "oyer": 5805,
      "pull": 5806,
      "puzzle": 5807,
      "plain": 5808,
      "uco": 5809,
      "wave": 5810,
      "yy": 5811,
      "³åº¦": 5812,
      "¶³åº¦": 5813,
      "inclusive": 5814,
      "increasing": 5815,
      "stri": 5816,
      "stance": 5817,
      "stones": 5818,
      "Ġtall": 5819,
      "Ġtreap": 5820,
      "orce": 5821,
      "orary": 5822,
      "Ġ(__": 5823,
      "Ġcert": 5824,
      "Ġcnum": 5825,
      "Ġcube": 5826,
      "Ġ{(": 5827,
      "Ġ{\\": 5828,
      "Ġrequest": 5829,
      "Ġreason": 5830,
      "ermat": 5831,
      "erature": 5832,
      "atype": 5833,
      "Ġmight": 5834,
      "Ġmdist": 5835,
      "ĠmTreap": 5836,
      "Ġstones": 5837,
      "Ġstatistics": 5838,
      "Ġnp": 5839,
      "utef": 5840,
      "Ġbid": 5841,
      "Ġbloom": 5842,
      "Ġbigger": 5843,
      "ars": 5844,
      "Ġpll": 5845,
      "Ġpoisson": 5846,
      "Ġsx": 5847,
      "Ġstdout": 5848,
      "Ġve": 5849,
      "Ġrhs": 5850,
      "amin": 5851,
      "ĠTrie": 5852,
      "ĠTotal": 5853,
      "Ġdue": 5854,
      "Ġdmin": 5855,
      "Ġday": 5856,
      "Ġdinic": 5857,
      "osen": 5858,
      "endOfWord": 5859,
      "Ġekey": 5860,
      "Ġ\"?": 5861,
      "Ġ\"^": 5862,
      "Ġinclusive": 5863,
      "Ġtech": 5864,
      "geon": 5865,
      "uefer": 5866,
      "ĠNow": 5867,
      "ĠNIL": 5868,
      "exchange": 5869,
      "ĠPost": 5870,
      "ĠPostorder": 5871,
      "Ġgame": 5872,
      "Ġgaps": 5873,
      "Ġguarante": 5874,
      "ntime": 5875,
      "][(": 5876,
      "ĠisPrime": 5877,
      "ĠId": 5878,
      "ĠSZ": 5879,
      "ĠSp": 5880,
      "ĠSuggest": 5881,
      "imate": 5882,
      "imation": 5883,
      "isEnd": 5884,
      "isPrime": 5885,
      "iscate": 5886,
      "unay": 5887,
      "ational": 5888,
      "chlid": 5889,
      "thon": 5890,
      "(\"-": 5891,
      "ĠMore": 5892,
      "ĠmaxValue": 5893,
      "ĠCy": 5894,
      "ĠComb": 5895,
      "Ġkth": 5896,
      "Ġkohonen": 5897,
      "Ġknight": 5898,
      "maximum": 5899,
      "phus": 5900,
      "Ġtrace": 5901,
      "ĠĠĠĠĠĠĠĠĠĠĠĠčĊ": 5902,
      "quen": 5903,
      "quares": 5904,
      "reslt": 5905,
      "minant": 5906,
      "tpi": 5907,
      "))/": 5908,
      "ĠRoot": 5909,
      "ĠROWS": 5910,
      "Ġcoin": 5911,
      "Ġcoordinate": 5912,
      "Ġbeta": 5913,
      "Ġ400": 5914,
      "ĠBtree": 5915,
      "ithmet": 5916,
      "ĠFound": 5917,
      "ĠFFT": 5918,
      "ĠLongest": 5919,
      "ĠLRU": 5920,
      "ĠLCA": 5921,
      "Ġmathematic": 5922,
      "Ġdetermin": 5923,
      "Ġ62": 5924,
      "Ġ66": 5925,
      "Ġ630": 5926,
      "ĠDP": 5927,
      "Ġsorts": 5928,
      "Ġscores": 5929,
      "Ġscale": 5930,
      "ights": 5931,
      "ĠElse": 5932,
      "ĠElement": 5933,
      "ĠEvalu": 5934,
      "curQueue": 5935,
      "Ġpows": 5936,
      "Ġdpr": 5937,
      "Ġexploring": 5938,
      "Ġrooted": 5939,
      "Ġswaps": 5940,
      "launay": 5941,
      "Ġlose": 5942,
      "Ġnote": 5943,
      "245": 5944,
      "possible": 5945,
      "positive": 5946,
      "Testcase": 5947,
      "modulo": 5948,
      "usuco": 5949,
      "ield": 5950,
      "ĠHull": 5951,
      "ĠTestData": 5952,
      "ĠexpectedReverse": 5953,
      "ĠexpectedForward": 5954,
      "Ġ80": 5955,
      "trace": 5956,
      "ĠĠĠĠĠĠĠĠĠĠĠĠĠĠĠĠĠĠĠĠĠĠĠĠĠĠĠĠĠĠĠĠĠĠĠĠĠĠĠĠĠĠĠ": 5957,
      "ĠStress": 5958,
      "Ġvisit": 5959,
      "INES": 5960,
      "Ġ$(": 5961,
      "private": 5962,
      "Ġenough": 5963,
      "Ġlogic": 5964,
      "Ġbitwise": 5965,
      "STRKEY": 5966,
      "Ġlimits": 5967,
      "Ġequival": 5968,
      "Ġinitialized": 5969,
      "trailing": 5970,
      "criminant": 5971,
      "topological": 5972,
      "graphs": 5973,
      "Ġspirograph": 5974,
      "State": 5975,
      "Ġpartial": 5976,
      "Ġparents": 5977,
      "money": 5978,
      "closed": 5979,
      "ĠsolveLinear": 5980,
      "divide": 5981,
      "OfMinCut": 5982,
      "ocs": 5983,
      "Ġcycles": 5984,
      "360": 5985,
      "mainlist": 5986,
      "pbds": 5987,
      "ĠDeque": 5988,
      "Ġexisting": 5989,
      "ĠoldTable": 5990,
      "ATIO": 5991,
      "gnu": 5992,
      "gnitude": 5993,
      "Ġactive": 5994,
      "strassens": 5995,
      "direction": 5996,
      "Ġperformed": 5997,
      "Ġperformance": 5998,
      "Ġsides": 5999,
      "ĠwasException": 6000,
      "ĠCreating": 6001,
      "Ġneeds": 6002,
      "=\"\";": 6003,
      "ĠsublistData": 6004,
      "Ġdivided": 6005,
      "uffman": 6006,
      "Return": 6007,
      "Ġconverted": 6008,
      "Ġsym": 6009,
      "000000000001": 6010,
      "Ġ...,": 6011,
      "Ġsafe": 6012,
      "ĠconvexHull": 6013,
      "ĠDisjoint": 6014,
      "Substring": 6015,
      "ABC": 6016,
      "ABCD": 6017,
      "digitSeparation": 6018,
      "degree": 6019,
      "2001": 6020,
      "ĠRecursively": 6021,
      "ĠJoh": 6022,
      "Ġadditional": 6023,
      "ĠWorld": 6024,
      "Ġoptimal": 6025,
      "exponentiation": 6026,
      "Ġscaler": 6027,
      "Ġcounterclockwise": 6028,
      "Ġrelation": 6029,
      "Ġrelative": 6030,
      "Ġspecific": 6031,
      "ĠPreorder": 6032,
      "Ġ'#'": 6033,
      "neighbour": 6034,
      "Hashing": 6035,
      "ĠDefault": 6036,
      "Transformation": 6037,
      "Ġconditions": 6038,
      "ConvexHull": 6039,
      "ALPHA": 6040,
      "Ġclosest": 6041,
      "Ġmsg": 6042,
      "ĠexpectedDataA": 6043,
      "ĠexpectedDataB": 6044,
      "Initialized": 6045,
      "ReverseOrder": 6046,
      "ĠAssum": 6047,
      "ĠMinHeapNode": 6048,
      "ĠNumerical": 6049,
      "computer": 6050,
      "Swastika": 6051,
      "Swastyy": 6052,
      "ĠTakes": 6053,
      "Ġclusters": 6054,
      "oeis": 6055,
      "ãģĻãĤĭ": 6056,
      "currposrow": 6057,
      "eigs": 6058,
      "Ġglobal": 6059,
      "Ġtraining": 6060,
      "Floor": 6061,
      "Ġreversed": 6062,
      "Ġsatisfi": 6063,
      "Ġdatatype": 6064,
      "Ġdeepest": 6065,
      "æºĢè": 6066,
      "Ġignore": 6067,
      "Ġarbitrary": 6068,
      "Ġcopied": 6069,
      "World": 6070,
      "heavychlid": 6071,
      "ĠSannemo": 6072,
      "Initiating": 6073,
      "87654321": 6074,
      "Ġqueried": 6075,
      "Ġbytestring": 6076,
      "Ġnetwork": 6077,
      "schedule": 6078,
      "Focusuco": 6079,
      "josephus": 6080,
      "uteforce": 6081,
      "ĠJohan": 6082,
      "æºĢè¶³åº¦": 6083,
      "Focusucof": 6084,
      "\"]": 6085,
      "-\";": 6086,
      "/=": 6087,
      "132": 6088,
      "139": 6089,
      "220": 6090,
      "225": 6091,
      "227": 6092,
      "200001": 6093,
      "400": 6094,
      "464": 6095,
      "664": 6096,
      ":\";": 6097,
      ">.": 6098,
      "Ans": 6099,
      "CR": 6100,
      "Cor": 6101,
      "CFS": 6102,
      "DOU": 6103,
      "ED": 6104,
      "Ext": 6105,
      "FU": 6106,
      "Fibonacci": 6107,
      "GE": 6108,
      "HI": 6109,
      "HPP": 6110,
      "Let": 6111,
      "MD": 6112,
      "Map": 6113,
      "MATH": 6114,
      "ND": 6115,
      "PR": 6116,
      "Presence": 6117,
      "Que": 6118,
      "RC": 6119,
      "Red": 6120,
      "ROR": 6121,
      "Two": 6122,
      "USE": 6123,
      "VW": 6124,
      "When": 6125,
      "XOR": 6126,
      "\\,": 6127,
      "_,": 6128,
      "ails": 6129,
      "aug": 6130,
      "bber": 6131,
      "baa": 6132,
      "cut": 6133,
      "center": 6134,
      "den": 6135,
      "duration": 6136,
      "docs": 6137,
      "euclidean": 6138,
      "full": 6139,
      "ken": 6140,
      "kmp": 6141,
      "kerner": 6142,
      "lsius": 6143,
      "mst": 6144,
      "morse": 6145,
      "mbox": 6146,
      "nP": 6147,
      "nl": 6148,
      "nThe": 6149,
      "nPassed": 6150,
      "och": 6151,
      "osed": 6152,
      "rame": 6153,
      "sd": 6154,
      "sx": 6155,
      "tive": 6156,
      "uf": 6157,
      "uild": 6158,
      "ving": 6159,
      "ware": 6160,
      "zik": 6161,
      "æľ": 6162,
      "Ġort": 6163,
      "Ġhis": 6164,
      "inct": 6165,
      "stdex": 6166,
      "Ġtit": 6167,
      "Ġable": 6168,
      "Ġauthor": 6169,
      "Ġ*>(": 6170,
      "Ġct": 6171,
      "Ġcould": 6172,
      "Ġcands": 6173,
      "Ġcircum": 6174,
      "lls": 6175,
      "Ġrehashing": 6176,
      "Ġft": 6177,
      "encrypted": 6178,
      "del": 6179,
      "deque": 6180,
      "dequeue": 6181,
      "atof": 6182,
      "Ġmind": 6183,
      "Ġnice": 6184,
      "Ġnamed": 6185,
      "Ġbri": 6186,
      "ĠbMin": 6187,
      "Ġbtoa": 6188,
      "Ġpp": 6189,
      "Ġphi": 6190,
      "Ġsi": 6191,
      "Ġsm": 6192,
      "Ġsnd": 6193,
      "Ġsay": 6194,
      "Ġreturning": 6195,
      "Ġrmod": 6196,
      "aline": 6197,
      "amp": 6198,
      "Ġlift": 6199,
      "acc": 6200,
      "acency": 6201,
      "()`": 6202,
      "edMedian": 6203,
      "ĠTurnaround": 6204,
      "++]);": 6205,
      "++]=": 6206,
      "Ġoss": 6207,
      "Ġostream": 6208,
      "Ġey": 6209,
      "Ġ\"[": 6210,
      "Ġ---------": 6211,
      "Ġwall": 6212,
      "Ġwildcard": 6213,
      "geo": 6214,
      "Ġyet": 6215,
      "Ġmaps": 6216,
      "Ġmagnitude": 6217,
      "included": 6218,
      "ĠNOL": 6219,
      "Ġconside": 6220,
      "entity": 6221,
      ">>());": 6222,
      "ĠPol": 6223,
      "Ġgc": 6224,
      "artic": 6225,
      "shuffle": 6226,
      "ĠAD": 6227,
      "ĠAu": 6228,
      "Ġrepetitions": 6229,
      "ĠSample": 6230,
      "ĠShift": 6231,
      "ĠSieve": 6232,
      "ulating": 6233,
      "htLine": 6234,
      "unit": 6235,
      "uniform": 6236,
      "unks": 6237,
      "Ġarmstrong": 6238,
      "Ġjoin": 6239,
      "(\"[": 6240,
      "ĠMon": 6241,
      "ĠMak": 6242,
      "ĠMyQueue": 6243,
      "Ġmaxx": 6244,
      "Ġmaxy": 6245,
      "Ġmaximize": 6246,
      "omega": 6247,
      "ĠChild": 6248,
      "Ġchanges": 6249,
      "Ġ:-": 6250,
      "celsius": 6251,
      "Ġgetline": 6252,
      "ĠnumP": 6253,
      "Ġ',": 6254,
      "Ġexcept": 6255,
      "ĠGPA": 6256,
      "lope": 6257,
      "ĠRight": 6258,
      "ĠRadius": 6259,
      "Ġcoprime": 6260,
      "Ġbellman": 6261,
      "Ġones": 6262,
      "ĠBuild": 6263,
      "asick": 6264,
      "Ġ55": 6265,
      "Ġminy": 6266,
      "ĠLLON": 6267,
      "ĠLSB": 6268,
      "stringstream": 6269,
      "Ġdeq": 6270,
      "Ġdesi": 6271,
      "Ġdetermine": 6272,
      "Ġfunctionality": 6273,
      "Ġ63": 6274,
      "ĠDAT": 6275,
      "rusk": 6276,
      "ops": 6277,
      "324": 6278,
      "Ġnecess": 6279,
      "abin": 6280,
      "tem": 6281,
      "actl": 6282,
      "Ġswapping": 6283,
      "ĠeditDist": 6284,
      "Ġprojection": 6285,
      "148": 6286,
      "Ġdistinct": 6287,
      "cover": 6288,
      "seconds": 6289,
      "secondary": 6290,
      "Ġask": 6291,
      "posA": 6292,
      "376": 6293,
      "mean": 6294,
      "modmul": 6295,
      "ĠWrapper": 6296,
      "ĠHuffman": 6297,
      "Ġcurrently": 6298,
      "ĠinputSize": 6299,
      "ĠIncrement": 6300,
      ")('": 6301,
      "Incl": 6302,
      "127": 6303,
      "Ġshared": 6304,
      "Ġprices": 6305,
      "based": 6306,
      "transform": 6307,
      "ODE": 6308,
      "githubuser": 6309,
      "chars": 6310,
      "Ġtravelling": 6311,
      "Ġabbreviation": 6312,
      "aya": 6313,
      "tinue": 6314,
      "ternary": 6315,
      "Ġrandomly": 6316,
      "counter": 6317,
      "coloring": 6318,
      "cyclic": 6319,
      "Ġintersect": 6320,
      "Ġtries": 6321,
      "STRU": 6322,
      "Ġlengths": 6323,
      "uplot": 6324,
      "rects": 6325,
      "ãģª": 6326,
      "ãģĭ": 6327,
      "Ġdisk": 6328,
      "180": 6329,
      "Ġfloor": 6330,
      "hedron": 6331,
      "elvin": 6332,
      "elsius": 6333,
      "monte": 6334,
      "solved": 6335,
      "Ġweighted": 6336,
      "Ġinvol": 6337,
      "Ġgreatest": 6338,
      "parentA": 6339,
      "Ġfrequent": 6340,
      "Ġdirect": 6341,
      "ĠReturning": 6342,
      "Ġcurrpos": 6343,
      "successes": 6344,
      "OfPuzzleInfo": 6345,
      "OfTwo": 6346,
      "ĠtargetSum": 6347,
      "currentNode": 6348,
      "ĠConvex": 6349,
      "ERROR": 6350,
      "Ġproblems": 6351,
      "bably": 6352,
      "Ġradians": 6353,
      "CTUR": 6354,
      "Exponent": 6355,
      "ĠshiftTable": 6356,
      "book": 6357,
      "ĠDetails": 6358,
      "Ġcomputing": 6359,
      "makeLinkedList": 6360,
      "110110": 6361,
      "Ġlinkedlist": 6362,
      "images": 6363,
      "anging": 6364,
      "ollard": 6365,
      "gnuplot": 6366,
      "triangle": 6367,
      "ĠLinear": 6368,
      "Ġmanner": 6369,
      "ĠPASS": 6370,
      "SetBits": 6371,
      "Ġgoal": 6372,
      "sphere": 6373,
      "ANG": 6374,
      "Profit": 6375,
      "Probe": 6376,
      "obber": 6377,
      "Ġorigin": 6378,
      "binarySearch": 6379,
      "Ġapproximations": 6380,
      "Ġappear": 6381,
      "Ġmoving": 6382,
      "ĠquickSort": 6383,
      "Recursive": 6384,
      "Ġthrows": 6385,
      "bered": 6386,
      "naive": 6387,
      "freqs": 6388,
      "sigma": 6389,
      "polar": 6390,
      "polic": 6391,
      "ĠreadyQueue": 6392,
      "Ġplaces": 6393,
      "Doubles": 6394,
      "Sudoku": 6395,
      "Ġsigma": 6396,
      "peek": 6397,
      "enghtLine": 6398,
      "Ġbruteforce": 6399,
      "sublistLL": 6400,
      "Ġcuts": 6401,
      "since": 6402,
      "Ġexactly": 6403,
      "imensions": 6404,
      "linearTransformation": 6405,
      "ĠTherefore": 6406,
      "Ġcombined": 6407,
      "Ġallowed": 6408,
      "Ġsubarrays": 6409,
      "Ġspecified": 6410,
      "ĠEnque": 6411,
      "neighbors": 6412,
      "Ġefficiently": 6413,
      "ĠEPS": 6414,
      "Ġmiss": 6415,
      "Ġ\"./": 6416,
      "Ġrespectively": 6417,
      "raphics": 6418,
      "Ġallocate": 6419,
      "Cycle": 6420,
      "ĠReplace": 6421,
      "system": 6422,
      "udo": 6423,
      "auss": 6424,
      "ĠPushRelabel": 6425,
      "Ġtransition": 6426,
      "flush": 6427,
      "ĠeggFloor": 6428,
      "Ġobtained": 6429,
      "OfCities": 6430,
      "Ġrmq": 6431,
      "Ġcentroids": 6432,
      "Ġblk": 6433,
      "Ġseparator": 6434,
      "unitTestWrapper": 6435,
      "PowerOfTwo": 6436,
      "tolower": 6437,
      "detection": 6438,
      "Ġsticks": 6439,
      "Ġomega": 6440,
      "Ġhamming": 6441,
      "Ġdescrib": 6442,
      "Failure": 6443,
      "IsEmpty": 6444,
      "which": 6445,
      "ĠmainlistData": 6446,
      "ĠDistance": 6447,
      "ĠReference": 6448,
      "Ġ'<')": 6449,
      "Assertion": 6450,
      "DEFINES": 6451,
      "Equation": 6452,
      "Moore": 6453,
      "()*-": 6454,
      "Ġelimin": 6455,
      "Ġcertain": 6456,
      "ithmetic": 6457,
      "mainlistLL": 6458,
      "ABCDEF": 6459,
      "DOUBLE": 6460,
      "Extended": 6461,
      "Ġortho": 6462,
      "stdexcept": 6463,
      "Ġtitle": 6464,
      "ĠNOLINT": 6465,
      "Ġconsidered": 6466,
      "ĠLLONG": 6467,
      "ĠDATA": 6468,
      "githubusercontent": 6469,
      "STRUCTUR": 6470,
      "STRUCTURES": 6471,
      "\"),": 6472,
      "'.": 6473,
      "(;": 6474,
      ")$,": 6475,
      "+'": 6476,
      "-\")": 6477,
      ".\");": 6478,
      ".\")": 6479,
      "010": 6480,
      "164": 6481,
      "114": 6482,
      "232": 6483,
      "234": 6484,
      "284": 6485,
      "231": 6486,
      "68": 6487,
      "756": 6488,
      "95": 6489,
      ":-": 6490,
      ";;": 6491,
      "ALL": 6492,
      "BE": 6493,
      "Boyer": 6494,
      "Can": 6495,
      "Cost": 6496,
      "Circle": 6497,
      "Cipher": 6498,
      "Div": 6499,
      "Day": 6500,
      "Deep": 6501,
      "Depth": 6502,
      "Euclidean": 6503,
      "Eratosthenes": 6504,
      "Filter": 6505,
      "GPA": 6506,
      "GHI": 6507,
      "HT": 6508,
      "HLD": 6509,
      "JK": 6510,
      "KACTL": 6511,
      "LM": 6512,
      "OG": 6513,
      "Poly": 6514,
      "PQR": 6515,
      "QU": 6516,
      "RP": 6517,
      "Right": 6518,
      "SZ": 6519,
      "Simple": 6520,
      "Solution": 6521,
      "Tri": 6522,
      "UF": 6523,
      "UVW": 6524,
      "Vis": 6525,
      "Valid": 6526,
      "With": 6527,
      "Year": 6528,
      "[--": 6529,
      "]>": 6530,
      "^\\": 6531,
      "`)": 6532,
      "ah": 6533,
      "ause": 6534,
      "bid": 6535,
      "before": 6536,
      "cities": 6537,
      "cands": 6538,
      "db": 6539,
      "do": 6540,
      "dnf": 6541,
      "eed": 6542,
      "eval": 6543,
      "fj": 6544,
      "final": 6545,
      "graphics": 6546,
      "house": 6547,
      "iquot": 6548,
      "iseconds": 6549,
      "ja": 6550,
      "jmp": 6551,
      "lst": 6552,
      "lis": 6553,
      "lies": 6554,
      "motion": 6555,
      "nj": 6556,
      "np": 6557,
      "nique": 6558,
      "nlogn": 6559,
      "overflow": 6560,
      "pw": 6561,
      "pur": 6562,
      "pass": 6563,
      "pmod": 6564,
      "qsort": 6565,
      "space": 6566,
      "sib": 6567,
      "sgn": 6568,
      "slice": 6569,
      "tm": 6570,
      "ted": 6571,
      "tour": 6572,
      "ured": 6573,
      "vdots": 6574,
      "vspace": 6575,
      "war": 6576,
      "was": 6577,
      "wru": 6578,
      "wers": 6579,
      "wice": 6580,
      "xC": 6581,
      "xa": 6582,
      "}}": 6583,
      "ÃĹ": 6584,
      "æķ": 6585,
      "Ġç": 6586,
      "Ġutil": 6587,
      "ĭå": 6588,
      "inc": 6589,
      "inft": 6590,
      "stead": 6591,
      "Ġ=====": 6592,
      "rest": 6593,
      "reach": 6594,
      "Ġios": 6595,
      "Ġtim": 6596,
      "Ġavg": 6597,
      "Ġ*,": 6598,
      "orage": 6599,
      "orizontal": 6600,
      "Ġcal": 6601,
      "Ġcid": 6602,
      "Ġcassert": 6603,
      "Ġcats": 6604,
      "Ġcdf": 6605,
      "==\"": 6606,
      "Ġref": 6607,
      "Ġremainder": 6608,
      "Ġfv": 6609,
      "Ġfailed": 6610,
      "Ġfflush": 6611,
      "enj": 6612,
      "dep": 6613,
      "demo": 6614,
      "Ġstra": 6615,
      "Ġstatus": 6616,
      "Ġncr": 6617,
      "setprecision": 6618,
      "Ġbar": 6619,
      "Ġballs": 6620,
      "lev": 6621,
      "lease": 6622,
      "arma": 6623,
      "arsh": 6624,
      "arithm": 6625,
      "arator": 6626,
      "arret": 6627,
      "arily": 6628,
      "Ġpancake": 6629,
      "heap": 6630,
      "Ġsb": 6631,
      "Ġvp": 6632,
      "Ġvia": 6633,
      "Ġvpii": 6634,
      "Ġrule": 6635,
      "almost": 6636,
      "Ġ<<=": 6637,
      "Ġlut": 6638,
      "()/": 6639,
      "()()": 6640,
      "Ġdim": 6641,
      "Ġdkey": 6642,
      "Ġocc": 6643,
      "osh": 6644,
      "osort": 6645,
      "osite": 6646,
      "clz": 6647,
      "endian": 6648,
      "Ġ\"...": 6649,
      "ssion": 6650,
      "Ġ-----": 6651,
      "Ġwlen": 6652,
      "Ġwave": 6653,
      "Ġwaiting": 6654,
      "Ġinch": 6655,
      "Ġincluding": 6656,
      "ries": 6657,
      "inese": 6658,
      "ummy": 6659,
      "Ġye": 6660,
      "Ġyo": 6661,
      "Ġyes": 6662,
      "includegraphics": 6663,
      "ĠNone": 6664,
      "ĠNaive": 6665,
      "Ġconso": 6666,
      "Ġ256": 6667,
      "ĠtoCheck": 6668,
      "Ġresidual": 6669,
      "icand": 6670,
      "otation": 6671,
      "otone": 6672,
      "ĠPath": 6673,
      "ĠPascal": 6674,
      "Ġgss": 6675,
      "istent": 6676,
      "arthest": 6677,
      "shortest": 6678,
      "ĠAyStarSearch": 6679,
      "ĠIs": 6680,
      "Ġsection": 6681,
      "Ġsemi": 6682,
      "ĠSing": 6683,
      "Ġ362": 6684,
      "img": 6685,
      "imization": 6686,
      "isPowerOfTwo": 6687,
      "tho": 6688,
      "three": 6689,
      "ads": 6690,
      "ĠMerge": 6691,
      "ĠmaxR": 6692,
      "conversion": 6693,
      "continue": 6694,
      "ĠCOLUMNS": 6695,
      "Ġ:\";": 6696,
      "ilename": 6697,
      "appen": 6698,
      "Ġ'<<": 6699,
      "Ġhappen": 6700,
      "Ġextra": 6701,
      "mins": 6702,
      "ĠGre": 6703,
      "ĠGener": 6704,
      "ĠResult": 6705,
      "ĠRMQ": 6706,
      "vement": 6707,
      "verg": 6708,
      "Ġcoc": 6709,
      "Ġ43": 6710,
      "Ġ4000": 6711,
      "ĠBE": 6712,
      "ĠBT": 6713,
      "ĠBe": 6714,
      "ĠBest": 6715,
      "ĠBipartite": 6716,
      "ĠBvals": 6717,
      "Ġ5000": 6718,
      "ĠFS": 6719,
      "ĠFCFS": 6720,
      "Ġminx": 6721,
      "Ġminimize": 6722,
      "ĠLIS": 6723,
      "ĠLCM": 6724,
      "Ġdeletes": 6725,
      "tab": 6726,
      "Ġ67": 6727,
      "Ġ69": 6728,
      "ĠDigit": 6729,
      "ĠDinic": 6730,
      "ĠDCE": 6731,
      "Ġalt": 6732,
      "Ġscs": 6733,
      "354": 6734,
      "Ġqi": 6735,
      "ĠvalueType": 6736,
      "ĠEvery": 6737,
      "ĠprintArray": 6738,
      "ĠTheorem": 6739,
      "curStack": 6740,
      "leftOfMinCut": 6741,
      "Ġpowers": 6742,
      "team": 6743,
      "Ġcompared": 6744,
      "setfill": 6745,
      "ĠKeep": 6746,
      "firstpos": 6747,
      "fie": 6748,
      "ĠrandIncl": 6749,
      "ĠQue": 6750,
      "coins": 6751,
      "program": 6752,
      "propose": 6753,
      "projectile": 6754,
      "posite": 6755,
      "ounds": 6756,
      "erson": 6757,
      "Ġ`(": 6758,
      "Ġpredefined": 6759,
      "Ġlists": 6760,
      "ĠUF": 6761,
      "ofWord": 6762,
      "ĠHashes": 6763,
      "epoch": 6764,
      "mann": 6765,
      "Ġ/*!": 6766,
      "Ġ96": 6767,
      "Ġ987654321": 6768,
      "Inversion": 6769,
      "Instance": 6770,
      "Ġsuccesses": 6771,
      "1232": 6772,
      "Ġprior": 6773,
      "woosh": 6774,
      "')){": 6775,
      "ĠleftRotate": 6776,
      "pping": 6777,
      "insertion": 6778,
      "ĠadjList": 6779,
      "ĠrightMax": 6780,
      "ĠĠĠĠĠĠĠĠĠĠĠĠĠĠĠĠĠĠĠĠĠĠĠĠĠĠĠĠĠĠĠĠĠĠĠĠĠĠĠĠĠĠĠĠĠĠĠĠĠĠ": 6781,
      "Ġstrong": 6782,
      "Ġtimeit": 6783,
      "ĠStandard": 6784,
      "ĠStructure": 6785,
      "ĠlastPos": 6786,
      "204": 6787,
      "ĠidList": 6788,
      "Ġcolors": 6789,
      "searching": 6790,
      "Ġtrav": 6791,
      "Ġtravel": 6792,
      "Ġtrained": 6793,
      "rength": 6794,
      "fixed": 6795,
      "kelvin": 6796,
      "]]+": 6797,
      "sortedValues": 6798,
      "price": 6799,
      "primality": 6800,
      "ĠCoefficients": 6801,
      "ciss": 6802,
      "EdgeList": 6803,
      "Ġenqueue": 6804,
      "Ġencode": 6805,
      "Ġlogarithm": 6806,
      "login": 6807,
      "countSetBits": 6808,
      "findEaster": 6809,
      "ĠRequi": 6810,
      "textwidth": 6811,
      "Ġcontinuous": 6812,
      "Ġinserts": 6813,
      "NOPQR": 6814,
      "STUVW": 6815,
      "Ġiterating": 6816,
      "ĠCompletion": 6817,
      "Ġcontainer": 6818,
      "near": 6819,
      "Ġinitialization": 6820,
      "Ġinitializer": 6821,
      "cnts": 6822,
      "ĠYour": 6823,
      "ecause": 6824,
      "ressor": 6825,
      "ãģŁ": 6826,
      "Ġhashes": 6827,
      "309": 6828,
      "174": 6829,
      "178": 6830,
      "ITER": 6831,
      "Ġcome": 6832,
      "avg": 6833,
      "Ġmultiples": 6834,
      "Ġparentheses": 6835,
      "Ġcyc": 6836,
      "Minus": 6837,
      "Ġprot": 6838,
      "ĠitemArray": 6839,
      "ãĤĮ": 6840,
      "stackoverflow": 6841,
      "sually": 6842,
      "Ġstooge": 6843,
      "Ġtherefore": 6844,
      "Ġ\",\"": 6845,
      "Ġcomputer": 6846,
      "Ġrecently": 6847,
      "ĠChecking": 6848,
      "Ġinfo": 6849,
      "ĠUnitTestWrapper": 6850,
      "newNode": 6851,
      "trial": 6852,
      "otherList": 6853,
      "SearchPresence": 6854,
      "Ġmanacher": 6855,
      "ĠAdding": 6856,
      "Ġperforms": 6857,
      "split": 6858,
      "Ġrequires": 6859,
      "765": 6860,
      "Ġfname": 6861,
      "discriminant": 6862,
      "8800": 6863,
      "segs": 6864,
      "bucket": 6865,
      "inorderSuccessor": 6866,
      "Near": 6867,
      "Neighbor": 6868,
      "uloP": 6869,
      "Ġfollows": 6870,
      "Convert": 6871,
      "GraphAs": 6872,
      "ĠdigitSeparation": 6873,
      "childNames": 6874,
      "Ġquicksort": 6875,
      "Ġwhat": 6876,
      "Ġvalidate": 6877,
      "different": 6878,
      "Ġacos": 6879,
      "Ġptrs": 6880,
      "Ġcomparator": 6881,
      "Ġtern": 6882,
      "Ġexecuted": 6883,
      "bstone": 6884,
      "OLS": 6885,
      "pruefer": 6886,
      "Ġsymmetric": 6887,
      "ModuloP": 6888,
      "ToConvert": 6889,
      "0000000000000000": 6890,
      "Ġplot": 6891,
      "Ġkeeping": 6892,
      "multiply": 6893,
      "Ġangles": 6894,
      "ĠpolygonCut": 6895,
      "fname": 6896,
      "Ġfactorials": 6897,
      "Subtree": 6898,
      "Ġground": 6899,
      "ĠHashInterval": 6900,
      "Change": 6901,
      "Ġrotated": 6902,
      "Ġopening": 6903,
      "weights": 6904,
      "Strings": 6905,
      "Ġoptimized": 6906,
      "Angle": 6907,
      "AnInvalid": 6908,
      "smaller": 6909,
      "works": 6910,
      "Ġprovides": 6911,
      "rowsAnInvalid": 6912,
      "Ġrelated": 6913,
      "Coloring": 6914,
      "CacheNode": 6915,
      "Endian": 6916,
      "Flows": 6917,
      "Ġ(;;)": 6918,
      "ĠDefine": 6919,
      "displaystyle": 6920,
      "duval": 6921,
      "poses": 6922,
      "ĠtestCases": 6923,
      "Ġhouse": 6924,
      "ĠRuns": 6925,
      "NotChange": 6926,
      "failure": 6927,
      "ĠRepe": 6928,
      "ĠValueType": 6929,
      "Ġrectangle": 6930,
      "segmentIntersectionInt": 6931,
      "segmentIntersectionDouble": 6932,
      "Quick": 6933,
      "Ġtombstone": 6934,
      "ĠAssign": 6935,
      "ĠUseful": 6936,
      "segDistDouble": 6937,
      "Ġturnaround": 6938,
      "Ġbias": 6939,
      "ĠtestPop": 6940,
      "Ġapplying": 6941,
      "ysics": 6942,
      "Ġåħ": 6943,
      "Argument": 6944,
      "Ġreduce": 6945,
      "Ġsdom": 6946,
      "Ġcluster": 6947,
      "ForwardOrder": 6948,
      "BitsFlip": 6949,
      "selectionSort": 6950,
      "ĠuniSmall": 6951,
      "evaluate": 6952,
      "evaluation": 6953,
      "Ġ\"-------": 6954,
      "unboundedKnapsack": 6955,
      "Ġ'(')": 6956,
      "Travelling": 6957,
      "lineDistDouble": 6958,
      "ĠLoop": 6959,
      "ĠOnce": 6960,
      "Ġindicates": 6961,
      "Ġconsists": 6962,
      "XYZabcdefghijklmnopqrstuvwxyz": 6963,
      "separated": 6964,
      "ĠTrue": 6965,
      "ĠeulerTotient": 6966,
      "ĠOverloaded": 6967,
      "Ġpropagation": 6968,
      "ĠApplying": 6969,
      "Month": 6970,
      "regressor": 6971,
      "Ġcleaned": 6972,
      "ĠChoice": 6973,
      "ĠWhile": 6974,
      "partitioning": 6975,
      "ThrowsAnInvalid": 6976,
      "amniscate": 6977,
      "Ġhelper": 6978,
      "Ġmembers": 6979,
      "Ġimprovement": 6980,
      "Clique": 6981,
      "éĸĭå": 6982,
      "Ġexpecting": 6983,
      "Ġboxes": 6984,
      "CyclicDFS": 6985,
      "ãĤ³ãĥ³ãĥĨãĤ¹ãĥĪãģ®ãĤ¿ãĤ¤ãĥķãĤĴ": 6986,
      "DoesNotChange": 6987,
      "ĠIdentity": 6988,
      "ĠCycle": 6989,
      "quences": 6990,
      "ĠEvaluate": 6991,
      "Ġsatisfies": 6992,
      "CRModuloP": 6993,
      "Ġbridge": 6994,
      "accumulate": 6995,
      "ruskal": 6996,
      "Ġdescribed": 6997,
      "ABCDEFGHI": 6998,
      "Ġorthogonal": 6999,
      "JKLM": 7000,
      "Visit": 7001,
      "wruk": 7002,
      "æķ°": 7003,
      "infty": 7004,
      "arrett": 7005,
      "Ġ-------\"": 7006,
      "Ġconsole": 7007,
      "ĠDCEL": 7008,
      "Ġlogarithmic": 7009,
      "NOPQRSTUVW": 7010,
      "ĠstoogeSort": 7011,
      "GraphAsEdgeList": 7012,
      "ArgumentWhen": 7013,
      "ThrowsAnInvalidArgumentWhen": 7014,
      "ABCDEFGHIJKLM": 7015,
      "NOPQRSTUVWXYZabcdefghijklmnopqrstuvwxyz": 7016,
      "ABCDEFGHIJKLMNOPQRSTUVWXYZabcdefghijklmnopqrstuvwxyz": 7017,
      "!\";": 7018,
      "'));": 7019,
      "(|": 7020,
      "(--": 7021,
      ")*(": 7022,
      ",...": 7023,
      ".;": 7024,
      "133": 7025,
      "714": 7026,
      "884": 7027,
      ":\");": 7028,
      "</": 7029,
      "={": 7030,
      "AC": 7031,
      "AR": 7032,
      "Ad": 7033,
      "Ak": 7034,
      "Adj": 7035,
      "AREA": 7036,
      "Aya": 7037,
      "BC": 7038,
      "Binomial": 7039,
      "CO": 7040,
      "Cr": 7041,
      "Di": 7042,
      "Dan": 7043,
      "Description": 7044,
      "Dijkstra": 7045,
      "ECT": 7046,
      "False": 7047,
      "HS": 7048,
      "Ham": 7049,
      "High": 7050,
      "Knn": 7051,
      "Lca": 7052,
      "LUT": 7053,
      "LIS": 7054,
      "Laj": 7055,
      "Laze": 7056,
      "LINE": 7057,
      "Mode": 7058,
      "Ones": 7059,
      "Pt": 7060,
      "Pri": 7061,
      "Page": 7062,
      "Reg": 7063,
      "Rabin": 7064,
      "SU": 7065,
      "Sq": 7066,
      "Sieve": 7067,
      "SUR": 7068,
      "Tot": 7069,
      "Trees": 7070,
      "UN": 7071,
      "UO": 7072,
      "Upper": 7073,
      "VOLUM": 7074,
      "Wr": 7075,
      "Water": 7076,
      "Wikipedia": 7077,
      "YG": 7078,
      "You": 7079,
      "YUO": 7080,
      "ZW": 7081,
      "]<": 7082,
      "]}));": 7083,
      "_;": 7084,
      "bug": 7085,
      "balanced": 7086,
      "call": 7087,
      "dr": 7088,
      "dsu": 7089,
      "either": 7090,
      "fst": 7091,
      "ght": 7092,
      "graham": 7093,
      "golden": 7094,
      "her": 7095,
      "imax": 7096,
      "iary": 7097,
      "implementations": 7098,
      "jump": 7099,
      "kohonen": 7100,
      "lift": 7101,
      "mol": 7102,
      "mation": 7103,
      "mTreap": 7104,
      "ned": 7105,
      "nod": 7106,
      "neg": 7107,
      "ncr": 7108,
      "ole": 7109,
      "ored": 7110,
      "pq": 7111,
      "plus": 7112,
      "pancake": 7113,
      "placed": 7114,
      "rod": 7115,
      "rute": 7116,
      "rho": 7117,
      "roduct": 7118,
      "sn": 7119,
      "sq": 7120,
      "snd": 7121,
      "save": 7122,
      "swer": 7123,
      "satis": 7124,
      "tM": 7125,
      "til": 7126,
      "task": 7127,
      "uval": 7128,
      "vle": 7129,
      "vect": 7130,
      "xF": 7131,
      "yKACTL": 7132,
      "|\\": 7133,
      "})\\": 7134,
      "})};": 7135,
      "åĬ": 7136,
      "æĽ": 7137,
      "çĤ": 7138,
      "ĠæĹ¥": 7139,
      "inPolygon": 7140,
      "inversion": 7141,
      "statistics": 7142,
      "ref": 7143,
      "recalc": 7144,
      "Ġ</": 7145,
      "Ġtxt": 7146,
      "Ġtbl": 7147,
      "Ġtortoise": 7148,
      "Ġtwice": 7149,
      "Ġaut": 7150,
      "Ġacross": 7151,
      "orial": 7152,
      "orie": 7153,
      "orised": 7154,
      "Ġ(`": 7155,
      "Ġ(++": 7156,
      "Ġcand": 7157,
      "Ġcaesar": 7158,
      "Ġrecur": 7159,
      "Ġrecomm": 7160,
      "Ġfine": 7161,
      "Ġfive": 7162,
      "Ġfails": 7163,
      "encoding": 7164,
      "enSol": 7165,
      "decode": 7166,
      "decimal": 7167,
      "Ġmo": 7168,
      "Ġnd": 7169,
      "Ġni": 7170,
      "Ġnod": 7171,
      "sey": 7172,
      "semi": 7173,
      "seudo": 7174,
      "Ġints": 7175,
      "arciss": 7176,
      "Ġpe": 7177,
      "Ġpur": 7178,
      "Ġpert": 7179,
      "Ġpast": 7180,
      "Ġpus": 7181,
      "Ġpract": 7182,
      "Ġswe": 7183,
      "Ġulps": 7184,
      "Ġvpi": 7185,
      "Ġvigenere": 7186,
      "Ġrmin": 7187,
      "Ġrnd": 7188,
      "Ġrainwater": 7189,
      "algo": 7190,
      "Ġlos": 7191,
      "Ġlight": 7192,
      "Ġformat": 7193,
      "Ġtheory": 7194,
      "ess": 7195,
      "anford": 7196,
      "()==": 7197,
      "ĠTop": 7198,
      "Ġdt": 7199,
      "Ġdimensions": 7200,
      "Ġdummy": 7201,
      "Ġeig": 7202,
      "Ġeas": 7203,
      "Ġeasy": 7204,
      "Ġ\"!": 7205,
      "Ġ\"/": 7206,
      "Ġ\"<<\"": 7207,
      "Ġ\"!=": 7208,
      "ssen": 7209,
      "001": 7210,
      "Ġwatch": 7211,
      "Ġwalk": 7212,
      "Ġwiggle": 7213,
      "ris": 7214,
      "Ġ+(": 7215,
      "ody": 7216,
      "Ġconj": 7217,
      "ertices": 7218,
      "ically": 7219,
      "ĠPR": 7220,
      "ĠPoly": 7221,
      "ĠPosition": 7222,
      "ĠPSA": 7223,
      "maze": 7224,
      "robber": 7225,
      "artition": 7226,
      "Ġtemporary": 7227,
      "ĠAp": 7228,
      "ĠIT": 7229,
      "ĠImplement": 7230,
      "Ġsev": 7231,
      "Ġsequent": 7232,
      "Ġsetpi": 7233,
      "Ġreplaced": 7234,
      "ĠSP": 7235,
      "ĠSlow": 7236,
      "ĠSave": 7237,
      "ĠSegment": 7238,
      "ulated": 7239,
      "units": 7240,
      "undy": 7241,
      "ĠtestCon": 7242,
      "getline": 7243,
      "getInstance": 7244,
      "Ġart": 7245,
      "ortant": 7246,
      "ĠMedian": 7247,
      "ĠMane": 7248,
      "ĠmaxC": 7249,
      "ĠmaxFrom": 7250,
      "conj": 7251,
      "Ġ\\{": 7252,
      "ĠCarlo": 7253,
      "ĠCipher": 7254,
      "ĠCelsius": 7255,
      "Ġ:\\": 7256,
      "Ġkk": 7257,
      "Ġkaratsuba": 7258,
      "ilities": 7259,
      "iliary": 7260,
      "ĠgetH": 7261,
      "ĠgetMin": 7262,
      "quad": 7263,
      "Ġhr": 7264,
      "Ġhad": 7265,
      "Ġhard": 7266,
      "Ġhare": 7267,
      "ĠGray": 7268,
      "ĠGCC": 7269,
      "ĠGraham": 7270,
      "ĠGLUT": 7271,
      "Ġ46": 7272,
      "ĠnumberOfC": 7273,
      "ĠBy": 7274,
      "ĠBegin": 7275,
      "ĠBFS": 7276,
      "ĠBump": 7277,
      "ĠBecause": 7278,
      "Ġunvisited": 7279,
      "Ġunbounded": 7280,
      "Ġ52": 7281,
      "Ġ54": 7282,
      "Ġ58": 7283,
      "ĠFrom": 7284,
      "ĠFST": 7285,
      "ĠminC": 7286,
      "Ġmins": 7287,
      "ĠminHeap": 7288,
      "ĠminFreq": 7289,
      "ĠLenghtLine": 7290,
      "ftware": 7291,
      "Ġdec": 7292,
      "Ġdequeue": 7293,
      "Ġdeviation": 7294,
      "ruzik": 7295,
      "Ġalign": 7296,
      "ople": 7297,
      "Ġsumx": 7298,
      "Ġsumy": 7299,
      "automaton": 7300,
      "extract": 7301,
      "ĠvalueToConvert": 7302,
      "ĠEN": 7303,
      "ĠEd": 7304,
      "ĠEqu": 7305,
      "ills": 7306,
      "ĠThey": 7307,
      "ĠThese": 7308,
      "Ġatan": 7309,
      "Ġatoi": 7310,
      "Ġatbash": 7311,
      "cessing": 7312,
      "Ġprobing": 7313,
      "ĠKth": 7314,
      "ĠKhan": 7315,
      "ĠKumar": 7316,
      "Ġpossib": 7317,
      "1424": 7318,
      "Ġdividing": 7319,
      "ĠnewK": 7320,
      "Ġnewly": 7321,
      "coeff": 7322,
      "posB": 7323,
      "Ġordered": 7324,
      "Nodes": 7325,
      "100005": 7326,
      "ĠVict": 7327,
      "Ġpreallocate": 7328,
      "ĠWaiting": 7329,
      "ĠHelper": 7330,
      "Ġsetting": 7331,
      "())\"},": 7332,
      "Ġ93": 7333,
      "Inverse": 7334,
      "Inside": 7335,
      "Ġsuf": 7336,
      "122": 7337,
      "125": 7338,
      "Ġprism": 7339,
      "Ġouter": 7340,
      "ĠleftMax": 7341,
      "Ġleftrotate": 7342,
      "insertKey": 7343,
      "ideal": 7344,
      "ĠĠĠĠĠĠĠĠĠĠĠĠĠĠĠĠĠĠĠĠĠĠĠĠĠĠĠĠĠĠĠĠĠĠĠĠĠĠĠĠĠĠĠĠ": 7345,
      "ĠĠĠĠĠĠĠĠĠĠĠĠĠĠĠĠĠĠĠĠĠĠĠĠĠĠĠĠĠĠĠĠĠĠĠĠĠĠĠĠĠĠĠĠĠĠĠĠĠĠĠ": 7346,
      "ĠĠĠĠĠĠĠĠĠĠĠĠĠĠĠĠĠĠĠĠĠĠĠĠĠĠĠĠĠĠĠĠĠĠĠĠĠĠĠĠĠ": 7347,
      "ĠString": 7348,
      "comps": 7349,
      "Ġvisiting": 7350,
      "ĠtwoThird": 7351,
      "ĠstackTop": 7352,
      "substring": 7353,
      "ayer": 7354,
      "ayes": 7355,
      "]]--;": 7356,
      "************************************************": 7357,
      "Ġmeas": 7358,
      "162": 7359,
      "countBitsFlip": 7360,
      "cyc": 7361,
      "Ġinteractive": 7362,
      "ĠinsertionSort": 7363,
      "amicable": 7364,
      "Ġbump": 7365,
      "Ġparam": 7366,
      "ĠoneThird": 7367,
      "Ġinitializes": 7368,
      "Ġnoexcept": 7369,
      "ressing": 7370,
      "Ġcorrection": 7371,
      "ãģķ": 7372,
      "structed": 7373,
      "States": 7374,
      "170": 7375,
      "oves": 7376,
      "Ġcomment": 7377,
      "monds": 7378,
      "Ġdiffs": 7379,
      "Ġanything": 7380,
      "Ġequals": 7381,
      "Ġgrev": 7382,
      "Ġfilled": 7383,
      "parentB": 7384,
      "parentheses": 7385,
      "Ġfreopen": 7386,
      "Ġfactorization": 7387,
      "Ġapple": 7388,
      "Ġgeneric": 7389,
      "Ġgeneration": 7390,
      "iteria": 7391,
      "impson": 7392,
      "OfLongest": 7393,
      "ĠExec": 7394,
      "Ġtopo": 7395,
      "liquot": 7396,
      "ensity": 7397,
      "Expo": 7398,
      "ankhan": 7399,
      "296": 7400,
      "Ġshifted": 7401,
      "ĠDecrypted": 7402,
      "ĠDetermine": 7403,
      "ĠDeleting": 7404,
      "Ġcorrectness": 7405,
      "1101": 7406,
      "Ġ10000000": 7407,
      "LEVE": 7408,
      "395": 7409,
      "Ġopposite": 7410,
      "newk": 7411,
      "3333": 7412,
      "Ġmanhattan": 7413,
      "Ġfaces": 7414,
      "Ġ501": 7415,
      "ĠsideOf": 7416,
      "222": 7417,
      "spanning": 7418,
      "theorem": 7419,
      "ĠAnswer": 7420,
      "Ġdisplayed": 7421,
      "Ġformed": 7422,
      "discrete": 7423,
      "effSum": 7424,
      "Ġuppercase": 7425,
      "abcde": 7426,
      "build": 7427,
      "ĠArrays": 7428,
      "hashi": 7429,
      "hashes": 7430,
      "Ġmultiplying": 7431,
      ":\\\\": 7432,
      "interval": 7433,
      "intersect": 7434,
      "phiFunction": 7435,
      "Ġthrown": 7436,
      "()%(": 7437,
      "6666": 7438,
      "Ġsingular": 7439,
      "prototype": 7440,
      "Ġcriteria": 7441,
      "Ġkeeps": 7442,
      "ĠDiscrete": 7443,
      "UnitTestManager": 7444,
      "UnitTestWrapper": 7445,
      "Ġ{\"(": 7446,
      "ĠConstructs": 7447,
      "Ġarguments": 7448,
      "ather": 7449,
      "Ġbounds": 7450,
      "Elements": 7451,
      "equiv": 7452,
      "10101010": 7453,
      "ĠLecomte": 7454,
      "Ġscaling": 7455,
      "Ġsuffixes": 7456,
      "Ġremoving": 7457,
      "Ġfinish": 7458,
      "ĠfibMinus": 7459,
      "ĠOperation": 7460,
      "FACE": 7461,
      "factors": 7462,
      "factorization": 7463,
      "movies": 7464,
      "Ġagainst": 7465,
      "ĠEncrypted": 7466,
      "/>\\": 7467,
      "CoeffSum": 7468,
      "ĠSupp": 7469,
      "ĠDefinition": 7470,
      "*\\*": 7471,
      "Ġcards": 7472,
      "simple": 7473,
      "]!='": 7474,
      "givenB": 7475,
      "Ġoccurs": 7476,
      "ĠBitset": 7477,
      "Ġconsidering": 7478,
      "ĠtinyKACTL": 7479,
      "Insertion": 7480,
      "ĠtrappedWater": 7481,
      "Ġreaches": 7482,
      "Ġunderflow": 7483,
      "Solver": 7484,
      "Ġoptions": 7485,
      "Ġmaking": 7486,
      "Ġcollection": 7487,
      "TrieNode": 7488,
      "tutorial": 7489,
      "epsilon": 7490,
      "questions": 7491,
      "supersequence": 7492,
      "GLUT": 7493,
      "ĠunitTestWrapper": 7494,
      "ĠVariable": 7495,
      "currposcol": 7496,
      "Ġmychain": 7497,
      "Level": 7498,
      "eez": 7499,
      "Ġaxis": 7500,
      "Ġ//!<": 7501,
      "Ġconvolution": 7502,
      "Ġassuming": 7503,
      "dimensional": 7504,
      "optimized": 7505,
      "ĠUpdates": 7506,
      "ĠUpdating": 7507,
      "Salesman": 7508,
      "Ġ'?')": 7509,
      "Ġalphabets": 7510,
      "combinator": 7511,
      "coeffs": 7512,
      "AshishYUO": 7513,
      "ĠSuffixArray": 7514,
      "ĠbinExpo": 7515,
      "HillCipher": 7516,
      "networks": 7517,
      "ĠpruferCode": 7518,
      "ĠMember": 7519,
      "omoryHu": 7520,
      "Ġrequested": 7521,
      "Ġtechnique": 7522,
      "Returned": 7523,
      "ALPHABET": 7524,
      "ĠAssumes": 7525,
      "QueenSol": 7526,
      "denominator": 7527,
      "Ġcircumference": 7528,
      "ĠMaking": 7529,
      "ayaankhan": 7530,
      "Exponential": 7531,
      "ANGLE": 7532,
      "unitTestWrappers": 7533,
      "ĠGreedy": 7534,
      "Ġstrongly": 7535,
      "Ġprotected": 7536,
      "failureCount": 7537,
      "ĠRepeat": 7538,
      "Ayaan": 7539,
      "Lajat": 7540,
      "Lazeeez": 7541,
      "OnesPattern": 7542,
      "SURFACE": 7543,
      "VOLUME": 7544,
      "Wrong": 7545,
      "tilde": 7546,
      "vlecomte": 7547,
      "çĤ¹": 7548,
      "orisedFactorial": 7549,
      "arcissistic": 7550,
      "Ġlosum": 7551,
      "ĠtestConstructed": 7552,
      "ĠManekar": 7553,
      "ĠVictor": 7554,
      "OfLongestSubstring": 7555,
      "LEVEL": 7556,
      "ĠDiscreteLog": 7557,
      "\">": 7558,
      "\"))": 7559,
      "$'": 7560,
      "$(-": 7561,
      "'re": 7562,
      "'&&": 7563,
      ")!": 7564,
      ")&": 7565,
      ")].": 7566,
      ")});": 7567,
      "-*": 7568,
      "-\\": 7569,
      "/).": 7570,
      "134": 7571,
      "20000": 7572,
      "235": 7573,
      "364": 7574,
      "311": 7575,
      "380": 7576,
      "479": 7577,
      "420": 7578,
      "419": 7579,
      "429": 7580,
      "912": 7581,
      ">);": 7582,
      "AE": 7583,
      "AP": 7584,
      "AV": 7585,
      "AY": 7586,
      "Ag": 7587,
      "Am": 7588,
      "Again": 7589,
      "Alvin": 7590,
      "BU": 7591,
      "Bl": 7592,
      "By": 7593,
      "Break": 7594,
      "Bipartite": 7595,
      "Before": 7596,
      "CH": 7597,
      "Cod": 7598,
      "Clear": 7599,
      "CSV": 7600,
      "Def": 7601,
      "Dynamic": 7602,
      "Eps": 7603,
      "Euclid": 7604,
      "Elliptic": 7605,
      "Funks": 7606,
      "Helper": 7607,
      "IH": 7608,
      "Kth": 7609,
      "Kutta": 7610,
      "Kadane": 7611,
      "Mas": 7612,
      "Mem": 7613,
      "Morse": 7614,
      "Mask": 7615,
      "Or": 7616,
      "Overflow": 7617,
      "PU": 7618,
      "Pi": 7619,
      "Per": 7620,
      "Par": 7621,
      "Palindrome": 7622,
      "Poisson": 7623,
      "ROWS": 7624,
      "SP": 7625,
      "Sto": 7626,
      "Section": 7627,
      "UINT": 7628,
      "Ulps": 7629,
      "Vy": 7630,
      "Van": 7631,
      "Walk": 7632,
      "Yg": 7633,
      "[_": 7634,
      "bol": 7635,
      "bigger": 7636,
      "btoa": 7637,
      "boruvkas": 7638,
      "cb": 7639,
      "cor": 7640,
      "car": 7641,
      "cube": 7642,
      "dq": 7643,
      "dst": 7644,
      "draw": 7645,
      "ean": 7646,
      "fptr": 7647,
      "flight": 7648,
      "farthest": 7649,
      "gs": 7650,
      "hc": 7651,
      "hing": 7652,
      "hal": 7653,
      "hld": 7654,
      "hns": 7655,
      "happy": 7656,
      "iques": 7657,
      "ki": 7658,
      "kutta": 7659,
      "kamp": 7660,
      "ls": 7661,
      "lon": 7662,
      "langle": 7663,
      "linkedList": 7664,
      "mar": 7665,
      "mmax": 7666,
      "machine": 7667,
      "null": 7668,
      "po": 7669,
      "public": 7670,
      "ror": 7671,
      "rangle": 7672,
      "sco": 7673,
      "sret": 7674,
      "tv": 7675,
      "tx": 7676,
      "tPassed": 7677,
      "tTime": 7678,
      "tFailed": 7679,
      "uce": 7680,
      "uhns": 7681,
      "va": 7682,
      "vice": 7683,
      "won": 7684,
      "where": 7685,
      "yes": 7686,
      "ython": 7687,
      "ylon": 7688,
      "}.": 7689,
      "}].": 7690,
      "}=\\": 7691,
      "~\"": 7692,
      "æĻ": 7693,
      "çĽ": 7694,
      "Ġ]": 7695,
      "Ġä": 7696,
      "Ġ....": 7697,
      "Ġeratosthenes": 7698,
      "Ĥ¬": 7699,
      "ĨĴ": 7700,
      "stoi": 7701,
      "standard": 7702,
      "rew": 7703,
      "rehashing": 7704,
      "Ġill": 7705,
      "ints": 7706,
      "Ġaa": 7707,
      "Ġaim": 7708,
      "Ġ*[": 7709,
      "Ġ*_": 7710,
      "orris": 7711,
      "Ġche": 7712,
      "Ġcmd": 7713,
      "onSegment": 7714,
      "Ġred": 7715,
      "Ġrehash": 7716,
      "erf": 7717,
      "eron": 7718,
      "erle": 7719,
      "Ġfh": 7720,
      "Ġfan": 7721,
      "Ġfash": 7722,
      "Ġfenwick": 7723,
      "Ġfield": 7724,
      "enuse": 7725,
      "deal": 7726,
      "decess": 7727,
      "deviation": 7728,
      "decompose": 7729,
      "device": 7730,
      "Ġmut": 7731,
      "Ġstk": 7732,
      "Ġstays": 7733,
      "Ġstud": 7734,
      "Ġstyle": 7735,
      "Ġnl": 7736,
      "Ġntt": 7737,
      "Ġncomps": 7738,
      "ural": 7739,
      "Ġ110": 7740,
      "Ġ125": 7741,
      "Ġ1501": 7742,
      "utils": 7743,
      "Ġbig": 7744,
      "Ġbptr": 7745,
      "leep": 7746,
      "ari": 7747,
      "Ġpo": 7748,
      "Ġpreser": 7749,
      "Ġpell": 7750,
      "heuristic": 7751,
      "Ġsn": 7752,
      "Ġsiz": 7753,
      "ital": 7754,
      "itially": 7755,
      "Ġva": 7756,
      "Ġvv": 7757,
      "Ġvset": 7758,
      "Ġrob": 7759,
      "alt": 7760,
      "alance": 7761,
      "Ġlru": 7762,
      "Ġlsum": 7763,
      "Ġlfound": 7764,
      "ĠtheX": 7765,
      "acing": 7766,
      "anizing": 7767,
      "()>": 7768,
      "()),": 7769,
      "()};": 7770,
      "ĠTemp": 7771,
      "ĠThat": 7772,
      "Ġda": 7773,
      "Ġdj": 7774,
      "Ġdust": 7775,
      "Ġduration": 7776,
      "ĠdRta": 7777,
      "Ġduring": 7778,
      "ĠdCta": 7779,
      "ional": 7780,
      "claring": 7781,
      "Ġear": 7782,
      "Ġeight": 7783,
      "Ġ\"--------": 7784,
      "Ġ\"---": 7785,
      "mptive": 7786,
      "Ġ-\\": 7787,
      "Ġanimation": 7788,
      "Ġwater": 7789,
      "Ġwalls": 7790,
      "Ġ&[": 7791,
      "Ġ&\\": 7792,
      "Ġinvert": 7793,
      "Ġmadd": 7794,
      "Ġoff": 7795,
      "ought": 7796,
      "ĠNext": 7797,
      "Ġconversion": 7798,
      "Ġconverg": 7799,
      "Ġ250": 7800,
      "Ġ234": 7801,
      "irling": 7802,
      "acek": 7803,
      "Ġlonger": 7804,
      "utomaton": 7805,
      "assoc": 7806,
      "otenuse": 7807,
      "ĠPut": 7808,
      "ĠPri": 7809,
      "ĠPython": 7810,
      "Ġgames": 7811,
      "mak": 7812,
      "arth": 7813,
      "should": 7814,
      "ĠAL": 7815,
      "ĠAt": 7816,
      "ĠAutomaton": 7817,
      "Ġmodinv": 7818,
      "Ġisn": 7819,
      "ĠisEnd": 7820,
      "ĠInter": 7821,
      "ĠItem": 7822,
      "ĠIdeal": 7823,
      "ĠSome": 7824,
      "ĠSkip": 7825,
      "acks": 7826,
      "Ġ39": 7827,
      "imdeep": 7828,
      "ĠmainList": 7829,
      "ĠtestAgain": 7830,
      "changed": 7831,
      "ivation": 7832,
      "ivative": 7833,
      "Ġarri": 7834,
      "ypotenuse": 7835,
      "orts": 7836,
      "throws": 7837,
      "ader": 7838,
      "ĠMP": 7839,
      "ĠMap": 7840,
      "ĠMark": 7841,
      "ĠmaxT": 7842,
      "ĠmaxNode": 7843,
      "ĠmaxElement": 7844,
      "ĠmaxProfit": 7845,
      "container": 7846,
      "ĠCatalan": 7847,
      "ĠCPU": 7848,
      "Ġchosen": 7849,
      "cell": 7850,
      "Ġkuhns": 7851,
      "berish": 7852,
      "maximal": 7853,
      "maxlift": 7854,
      "ushar": 7855,
      "ĠnodeCount": 7856,
      "Ġ'/": 7857,
      "Ġ'@": 7858,
      "Ġ'[": 7859,
      "expo": 7860,
      "Ġhc": 7861,
      "Ġthings": 7862,
      "Ġexha": 7863,
      "Ġexchange": 7864,
      "minIndex": 7865,
      "ĠGRE": 7866,
      "lineDistance": 7867,
      "ĠRAND": 7868,
      "ĠRUN": 7869,
      "versing": 7870,
      "Ġbeads": 7871,
      "~~\"": 7872,
      "Ġ44": 7873,
      "Ġ420": 7874,
      "Ġendpoint": 7875,
      "Ġendian": 7876,
      "reemptive": 7877,
      "allelogram": 7878,
      "ĠBob": 7879,
      "ĠBreadth": 7880,
      "ĠBLA": 7881,
      "ĠBasic": 7882,
      "asks": 7883,
      "Ġundefined": 7884,
      "Ġ53": 7885,
      "Ġ57": 7886,
      "ĠFT": 7887,
      "ĠFlo": 7888,
      "ifth": 7889,
      "ifies": 7890,
      "ifting": 7891,
      "Ġminim": 7892,
      "ĠminIndex": 7893,
      "ĠminElement": 7894,
      "peration": 7895,
      "perror": 7896,
      "ĠLL": 7897,
      "ĠLP": 7898,
      "ĠLU": 7899,
      "ĠLittle": 7900,
      "ĠLFU": 7901,
      "ameter": 7902,
      "ords": 7903,
      "Ġclique": 7904,
      "Ġmatched": 7905,
      "Ġdeal": 7906,
      "ĠDQ": 7907,
      "ĠDif": 7908,
      "arrays": 7909,
      "cktail": 7910,
      "Ġsumto": 7911,
      "359": 7912,
      "329": 7913,
      "Ġqhigh": 7914,
      "extended": 7915,
      "ĠEven": 7916,
      "ĠEuclid": 7917,
      "distances": 7918,
      "testing": 7919,
      "testcase": 7920,
      "illator": 7921,
      "Ġscanu": 7922,
      "Ġadaline": 7923,
      ">(_": 7924,
      "curate": 7925,
      "ĠarrPos": 7926,
      "doubles": 7927,
      "matches": 7928,
      "ĠdpTable": 7929,
      "construction": 7930,
      "151": 7931,
      "152": 7932,
      "155": 7933,
      "158": 7934,
      "Ġexpo": 7935,
      "Ġpointed": 7936,
      "ĠKutta": 7937,
      "143": 7938,
      "Ġdivsum": 7939,
      "Ġload": 7940,
      "Ġdistr": 7941,
      "ĠOr": 7942,
      "ĠOrd": 7943,
      "ĠnotRoot": 7944,
      "Ġnothing": 7945,
      "Ġ70": 7946,
      "Ġ72": 7947,
      "Ġ75": 7948,
      "probability": 7949,
      "373": 7950,
      "sorting": 7951,
      "horse": 7952,
      "10000000": 7953,
      "268": 7954,
      "ains": 7955,
      "ersIn": 7956,
      "Ġpref": 7957,
      "Ġprepro": 7958,
      "Ġpreferred": 7959,
      "iew": 7960,
      "iemann": 7961,
      "achance": 7962,
      "794": 7963,
      "ĠWidth": 7964,
      "offset": 7965,
      "inkCut": 7966,
      "ĠTestcases": 7967,
      "replace": 7968,
      "repetitions": 7969,
      "ĠcurrentDist": 7970,
      "ĠRaval": 7971,
      "ĠInformation": 7972,
      "ĠInitially": 7973,
      "Ġ91": 7974,
      "Ġ94": 7975,
      "121": 7976,
      "Ġshot": 7977,
      "ourth": 7978,
      "ĠnCkInit": 7979,
      "Ġpushing": 7980,
      "Ġoutside": 7981,
      "Ġadjust": 7982,
      "Ġrightrotate": 7983,
      "ĠrightOnesPattern": 7984,
      "ĠĠĠĠĠĠĠĠĠĠĠĠĠĠĠĠĠĠĠĠĠĠĠĠĠĠĠĠĠĠĠĠĠĠĠĠĠĠĠĠĠĠĠĠĠ": 7985,
      "ĠĠĠĠĠĠĠĠĠĠĠĠĠĠĠĠĠĠĠĠĠĠĠĠĠĠĠĠĠĠĠĠĠĠĠĠĠĠĠĠĠĠĠĠĠĠĠĠĠĠĠĠĠĠĠĠĠ": 7986,
      "ĠĠĠĠĠĠĠĠĠĠĠĠĠĠĠĠĠĠĠĠĠĠĠĠĠĠĠĠĠĠĠĠĠĠĠĠĠĠĠĠĠĠĠĠĠĠĠĠĠĠĠĠ": 7987,
      "ĠĠĠĠĠĠĠĠĠĠĠĠĠĠĠĠĠĠĠĠĠĠĠĠĠĠĠĠĠĠĠĠĠĠĠĠĠĠĠĠĠĠĠĠĠĠĠĠĠĠĠĠĠĠĠĠĠĠĠĠĠĠĠ": 7988,
      "Ġ2018": 7989,
      "dataArr": 7990,
      "queryPath": 7991,
      "ĠState": 7992,
      "ĠStanford": 7993,
      "208": 7994,
      "lengthOfLongestSubstring": 7995,
      "ING": 7996,
      "Ġ$|": 7997,
      "Ġcosts": 7998,
      "Ġcoloring": 7999,
      "Ġtrains": 8000,
      "Ġtrailing": 8001,
      "250": 8002,
      "kew": 8003,
      "ibility": 8004,
      "ibberish": 8005,
      "]]].": 8006,
      "Ġhashtab": 8007,
      "1600": 8008,
      "priate": 8009,
      "ĠCocktail": 8010,
      "Ġrandomized": 8011,
      "ĠrandomSimple": 8012,
      "Ġenum": 8013,
      "ĠlogK": 8014,
      "previous": 8015,
      "colum": 8016,
      "ĠRecur": 8017,
      "Ġcounting": 8018,
      "Ġdoc": 8019,
      "cylinder": 8020,
      "Ġinserting": 8021,
      "Ġtriangular": 8022,
      "Ġtables": 8023,
      "milliseconds": 8024,
      "ĠComparator": 8025,
      "Ġvarious": 8026,
      "hildren": 8027,
      "Ġequations": 8028,
      "Ġequally": 8029,
      "Ġinitialise": 8030,
      "}\\\\": 8031,
      "ĠqueueRe": 8032,
      "ĠqueueFront": 8033,
      "Ġminimumindex": 8034,
      "[]=\"": 8035,
      "hashFxn": 8036,
      "ãģ¨": 8037,
      "Ġsplice": 8038,
      "ometric": 8039,
      "1818": 8040,
      "ovie": 8041,
      "Ġparticular": 8042,
      "Ġcomes": 8043,
      "oldTable": 8044,
      "190": 8045,
      "194": 8046,
      "Ġcyclic": 8047,
      "soln": 8048,
      "Ġpositions": 8049,
      "Ġ{{-": 8050,
      "ĠorderOf": 8051,
      "Ġbestr": 8052,
      "Ġmaximumindex": 8053,
      "stackB": 8054,
      "iphersIn": 8055,
      "ĠMatching": 8056,
      "oki": 8057,
      "Ġabsent": 8058,
      "ĠConversion": 8059,
      "ĠchildNames": 8060,
      "Ġquotient": 8061,
      "Ġappropriate": 8062,
      "Ġcentered": 8063,
      "Ġradicand": 8064,
      "2905": 8065,
      "367": 8066,
      "Ġpowerful": 8067,
      "ĠDeclaring": 8068,
      "Ġuseful": 8069,
      "ĠoldSize": 8070,
      "Ġanswering": 8071,
      "5454": 8072,
      "Unsorted": 8073,
      "}{\\": 8074,
      "ollback": 8075,
      "skills": 8076,
      "hesis": 8077,
      "ĠexampleFunction": 8078,
      "Ġactivation": 8079,
      "607": 8080,
      "6025": 8081,
      "Ġbuilds": 8082,
      "Ġcodes": 8083,
      "Ordinary": 8084,
      "ĠwindowSize": 8085,
      ">='": 8086,
      "Process": 8087,
      "binom": 8088,
      "ĠapproxArea": 8089,
      "binaryTree": 8090,
      "Ġpartitioning": 8091,
      "Ġ./": 8092,
      "866025": 8093,
      "intervals": 8094,
      "ĠSharma": 8095,
      "Container": 8096,
      "PolygonArea": 8097,
      "Integer": 8098,
      "Ġapplication": 8099,
      "Ġapplied": 8100,
      "polygonCut": 8101,
      "Ġquickly": 8102,
      "Ġmessa": 8103,
      "Ġaccept": 8104,
      "Ġ'.'){": 8105,
      "member": 8106,
      "Ġpopulate": 8107,
      "Ġpopped": 8108,
      "&&)": 8109,
      "IMove": 8110,
      "ModPow": 8111,
      "0000000000": 8112,
      "ĠQuad": 8113,
      "452": 8114,
      "Ġaccumul": 8115,
      "Ġwriting": 8116,
      "ĠHashing": 8117,
      ">{-": 8118,
      "Chars": 8119,
      "various": 8120,
      "derived": 8121,
      "Ġextre": 8122,
      "Ġversions": 8123,
      "iterativeFactorial": 8124,
      "ĠWorks": 8125,
      "Ġtriangles": 8126,
      "------------": 8127,
      "Vectors": 8128,
      "Ġamong": 8129,
      "Ġamnt": 8130,
      "ĠRemoves": 8131,
      "Ġbufp": 8132,
      "Ġremoves": 8133,
      "||((": 8134,
      "Ġ\"-.": 8135,
      "BitPattern": 8136,
      "circleTangents": 8137,
      "Ġmonth": 8138,
      "Ġpolar": 8139,
      "ĠInteg": 8140,
      "ĠExplanation": 8141,
      "LinearSearch": 8142,
      "Ġaccordingly": 8143,
      "Numeric": 8144,
      "PERF": 8145,
      "moves": 8146,
      "FactorialN": 8147,
      "penapple": 8148,
      "Ġflipped": 8149,
      "ĠAppending": 8150,
      "ĠCopyright": 8151,
      "Ġlooking": 8152,
      "ĠsearchingProber": 8153,
      "Ġdefinite": 8154,
      "Ġ\")\";": 8155,
      "ĠSublist": 8156,
      "ĠâĨĴ": 8157,
      "NotEmpty": 8158,
      "Ġallocated": 8159,
      "ĠDisplays": 8160,
      "Ġincreases": 8161,
      "Ġsupported": 8162,
      "givenA": 8163,
      "ĠensureNotEmpty": 8164,
      "Query": 8165,
      "vvvv": 8166,
      "ĠccCenter": 8167,
      "ĠputProber": 8168,
      "subsets": 8169,
      "DFSMatching": 8170,
      "runge": 8171,
      "ĠStarting": 8172,
      "vertexNum": 8173,
      "FreqAutocomplete": 8174,
      "ĠNumer": 8175,
      "ĠtestPush": 8176,
      "ĠtestPerf": 8177,
      "pageFault": 8178,
      "Ġcpoi": 8179,
      "Ġincluded": 8180,
      "Ġcollision": 8181,
      "Ġreduced": 8182,
      "apply": 8183,
      "Ġ'-'": 8184,
      "ĠhighestGPA": 8185,
      "GLISH": 8186,
      "oewoosh": 8187,
      "Ġelem": 8188,
      "Ġseparate": 8189,
      "Ġproperties": 8190,
      "Codes": 8191,
      "Ġstrict": 8192,
      "hrs": 8193,
      "ĠAlso": 8194,
      "Ġassumes": 8195,
      "Ġ'*')": 8196,
      "Ġhamilton": 8197,
      "Ġ12345": 8198,
      "(\"~~~~~~~~~~~~~~~~~~~~~~~~~~~~~~~~~~~~~~~~~~~~~~~~~~~~~~~~~~~~~~~~~\"": 8199,
      "(\"~~~~~~~~~~~~~~~~~~~~~~~~~~~~~~~~~~~~~~~~~~~~~~~~~~~~~~~~~~~~~~~~~~\"": 8200,
      "Spot": 8201,
      "operands": 8202,
      "separator": 8203,
      "Ġpropagated": 8204,
      "ĠextendedEuclid": 8205,
      "sameSet": 8206,
      "original": 8207,
      "Ġassociative": 8208,
      "Ġassociated": 8209,
      "LRUCache": 8210,
      "multi": 8211,
      "multinomial": 8212,
      "ramid": 8213,
      "Ġtribonacci": 8214,
      "Ġmerging": 8215,
      "Ġmerged": 8216,
      "Ġpiece": 8217,
      "Ġpieces": 8218,
      "Ġexceeds": 8219,
      "ĠDivide": 8220,
      "Comma": 8221,
      "Ġmisplaced": 8222,
      "Ġroom": 8223,
      "Ġruntime": 8224,
      "ĠAdjacency": 8225,
      "ĠLukas": 8226,
      "ĠOpenMP": 8227,
      "ĠConsider": 8228,
      "opcroftKarpAlgorithm": 8229,
      "strict": 8230,
      "Ġtallest": 8231,
      "Ġvelocity": 8232,
      "geonhole": 8233,
      "Ġguaranteed": 8234,
      "ĠSpanning": 8235,
      "isEndofWord": 8236,
      "Ġmathematics": 8237,
      "Ġsymbol": 8238,
      "ABCXYZ": 8239,
      "Corasick": 8240,
      "Letter": 8241,
      "\\,,\\": 8242,
      "Ġhisum": 8243,
      "Ġmindist": 8244,
      "Ġ-----------\"": 8245,
      "ĠPolacek": 8246,
      "Ġinvolves": 8247,
      "Ġfrequently": 8248,
      "Ġcurrposcol": 8249,
      "polarvoid": 8250,
      "policy": 8251,
      "YearMonth": 8252,
      "arshall": 8253,
      "Ġ3628800": 8254,
      "thogonal": 8255,
      "ĠBEAD": 8256,
      "ĠQueens": 8257,
      "1232142": 8258,
      "ĠRequired": 8259,
      "NearInt": 8260,
      "Ġternary": 8261,
      "éĸĭåĤ¬": 8262,
      "Model": 8263,
      "callback": 8264,
      "goldenSection": 8265,
      "åĬĽ": 8266,
      "ĠæĹ¥çĽ": 8267,
      "Ġpushed": 8268,
      "Ġsweep": 8269,
      "Ġeasily": 8270,
      "ĠAppro": 8271,
      "ĠSlowSort": 8272,
      "ĠgetHashes": 8273,
      "ĠnumberOfCiphersIn": 8274,
      "Ġbumpalloc": 8275,
      "intervalUnion": 8276,
      "Coder": 8277,
      "KthBit": 8278,
      "Massey": 8279,
      "scores": 8280,
      "ylonian": 8281,
      "æĻĤ": 8282,
      "Ġaims": 8283,
      "erlekamp": 8284,
      "Ġfashion": 8285,
      "decessor": 8286,
      "Ġrobbed": 8287,
      "Ġ\"-----------": 8288,
      "ĠtestAgainst": 8289,
      "Ġexhaust": 8290,
      "ĠGREY": 8291,
      "ĠBLACK": 8292,
      "ĠqueueRear": 8293,
      "Ġmessages": 8294,
      "Ġaccumulator": 8295,
      "YearMonthDay": 8296,
      "goldenSectionSearch": 8297,
      "ĠæĹ¥çĽ®": 8298,
      "ĠnumberOfCiphersInFactorialN": 8299,
      "!(": 8300,
      "$-": 8301,
      "%=": 8302,
      "'+": 8303,
      "']": 8304,
      "([": 8305,
      "(__": 8306,
      ")<": 8307,
      ")?": 8308,
      ")==": 8309,
      ")\";": 8310,
      "*}": 8311,
      "*>(": 8312,
      "+.": 8313,
      "-->": 8314,
      ".:": 8315,
      "/.": 8316,
      "135": 8317,
      "189": 8318,
      "289": 8319,
      "460": 8320,
      "564": 8321,
      "50000": 8322,
      "526": 8323,
      "527": 8324,
      "529": 8325,
      "780": 8326,
      "887": 8327,
      "AG": 8328,
      "Ant": 8329,
      "And": 8330,
      "BA": 8331,
      "Be": 8332,
      "Bvals": 8333,
      "Bloom": 8334,
      "Bounds": 8335,
      "Cube": 8336,
      "CHAR": 8337,
      "Digit": 8338,
      "DEN": 8339,
      "EE": 8340,
      "EP": 8341,
      "EMP": 8342,
      "Edges": 8343,
      "Ford": 8344,
      "Func": 8345,
      "FLO": 8346,
      "Fenwick": 8347,
      "Fermat": 8348,
      "GOL": 8349,
      "GCD": 8350,
      "Graham": 8351,
      "Gram": 8352,
      "Hum": 8353,
      "Hits": 8354,
      "Hopc": 8355,
      "ILE": 8356,
      "IIt": 8357,
      "Jump": 8358,
      "LU": 8359,
      "Lo": 8360,
      "Lu": 8361,
      "Low": 8362,
      "Length": 8363,
      "MX": 8364,
      "Multip": 8365,
      "NM": 8366,
      "NV": 8367,
      "Name": 8368,
      "NIL": 8369,
      "NCRModuloP": 8370,
      "Narcissistic": 8371,
      "OJ": 8372,
      "On": 8373,
      "Operation": 8374,
      "Pol": 8375,
      "Rec": 8376,
      "Radius": 8377,
      "RATIO": 8378,
      "Robber": 8379,
      "Swap": 8380,
      "Sample": 8381,
      "SAT": 8382,
      "Sparse": 8383,
      "Scan": 8384,
      "TEMP": 8385,
      "Up": 8386,
      "Warshall": 8387,
      "Xswap": 8388,
      "\\&](": 8389,
      "]\"": 8390,
      "]&": 8391,
      "aul": 8392,
      "aMin": 8393,
      "ahashi": 8394,
      "bw": 8395,
      "bMin": 8396,
      "bins": 8397,
      "cll": 8398,
      "che": 8399,
      "city": 8400,
      "circular": 8401,
      "dim": 8402,
      "dmin": 8403,
      "dition": 8404,
      "dominator": 8405,
      "durand": 8406,
      "eta": 8407,
      "fal": 8408,
      "fun": 8409,
      "fiable": 8410,
      "filename": 8411,
      "gu": 8412,
      "gy": 8413,
      "gur": 8414,
      "gar": 8415,
      "git": 8416,
      "gift": 8417,
      "gosort": 8418,
      "hopcroftKarpAlgorithm": 8419,
      "lut": 8420,
      "lod": 8421,
      "lated": 8422,
      "later": 8423,
      "mit": 8424,
      "mdist": 8425,
      "must": 8426,
      "mcmf": 8427,
      "nap": 8428,
      "nAll": 8429,
      "nCr": 8430,
      "nYou": 8431,
      "nOverflow": 8432,
      "nmatches": 8433,
      "oy": 8434,
      "oks": 8435,
      "pet": 8436,
      "preemptive": 8437,
      "rit": 8438,
      "rate": 8439,
      "rch": 8440,
      "rated": 8441,
      "slow": 8442,
      "sink": 8443,
      "splay": 8444,
      "tle": 8445,
      "tans": 8446,
      "tortoise": 8447,
      "ued": 8448,
      "vors": 8449,
      "vigenere": 8450,
      "wd": 8451,
      "ws": 8452,
      "want": 8453,
      "way": 8454,
      "xA": 8455,
      "xB": 8456,
      "xum": 8457,
      "ynd": 8458,
      "year": 8459,
      "zi": 8460,
      "{\\_": 8461,
      "})));": 8462,
      "§£": 8463,
      "¼ãĤ¿": 8464,
      "Â²": 8465,
      "ÏĢ": 8466,
      "Ïķ": 8467,
      "è§£": 8468,
      "Ġer": 8469,
      "Ġ..": 8470,
      "Ġãģ": 8471,
      "ĠâĢ": 8472,
      "ĠæºĢè¶³åº¦": 8473,
      "ĠÏĢ": 8474,
      "Ĩãĥ": 8475,
      "inNode": 8476,
      "info": 8477,
      "stable": 8478,
      "stats": 8479,
      "struzik": 8480,
      "rec": 8481,
      "reip": 8482,
      "reference": 8483,
      "recent": 8484,
      "Ġiv": 8485,
      "Ġimm": 8486,
      "Ġisect": 8487,
      "Ġtp": 8488,
      "Ġtight": 8489,
      "Ġtangents": 8490,
      "ora": 8491,
      "ori": 8492,
      "orftKarp": 8493,
      "Ġ})": 8494,
      "Ġ($\\": 8495,
      "Ġcht": 8496,
      "Ġcup": 8497,
      "Ġcumulative": 8498,
      "Ġclear": 8499,
      "Ġreferred": 8500,
      "erOne": 8501,
      "Ġflight": 8502,
      "decryption": 8503,
      "delt": 8504,
      "decreasing": 8505,
      "decoded": 8506,
      "Ġmart": 8507,
      "Ġmoc": 8508,
      "Ġstrand": 8509,
      "Ġstrength": 8510,
      "Ġnames": 8511,
      "Ġ177": 8512,
      "Ġ0000": 8513,
      "Ġbeg": 8514,
      "Ġbidirectional": 8515,
      "Ġbalanced": 8516,
      "leq": 8517,
      "leans": 8518,
      "aries": 8519,
      "Ġsq": 8520,
      "Ġsss": 8521,
      "Ġslower": 8522,
      "Ġsret": 8523,
      "Ġsquares": 8524,
      "ctice": 8525,
      "Ġiff": 8526,
      "ites": 8527,
      "iters": 8528,
      "itable": 8529,
      "Ġvb": 8530,
      "Ġvtx": 8531,
      "Ġry": 8532,
      "Ġrle": 8533,
      "Ġrout": 8534,
      "Ġrcap": 8535,
      "Ġrlevel": 8536,
      "Ġrather": 8537,
      "aman": 8538,
      "Ġlb": 8539,
      "Ġly": 8540,
      "Ġloss": 8541,
      "Ġlhs": 8542,
      "Ġlayer": 8543,
      "ĠtheDist": 8544,
      "Ġtheorem": 8545,
      "acer": 8546,
      "essage": 8547,
      "anta": 8548,
      "()<": 8549,
      "()];": 8550,
      "()\"},": 8551,
      "Ġxor": 8552,
      "Ġxmov": 8553,
      "edTree": 8554,
      "ĠThen": 8555,
      "ĠThird": 8556,
      "ĠTotient": 8557,
      "++_": 8558,
      "osc": 8559,
      "clique": 8560,
      "Ġec": 8561,
      "Ġelliptic": 8562,
      "Ġwide": 8563,
      "Ġwins": 8564,
      "Ġ&)": 8565,
      "Ġins": 8566,
      "Ġindiv": 8567,
      "Ġinefficient": 8568,
      "hie": 8569,
      "raj": 8570,
      "raction": 8571,
      "Ġyi": 8572,
      "Ġys": 8573,
      "Ġymov": 8574,
      "Ġmag": 8575,
      "Ġmaj": 8576,
      "oul": 8577,
      "Ġcontent": 8578,
      "Ġconcept": 8579,
      "Ġ20000": 8580,
      "Ġ232": 8581,
      "definition": 8582,
      "Ġtoo": 8583,
      "Ġtoget": 8584,
      "Ġtowards": 8585,
      "Ġanswers": 8586,
      "idpoint": 8587,
      "Ġconstruction": 8588,
      "icable": 8589,
      "icsi": 8590,
      ">>,": 8591,
      "ĠPQ": 8592,
      "ĠPos": 8593,
      "ĠPop": 8594,
      "ĠParent": 8595,
      "ĠPivot": 8596,
      "ĠProduct": 8597,
      "ĠPartition": 8598,
      "Ġgolden": 8599,
      "ĠgomoryHu": 8600,
      "roy": 8601,
      "artist": 8602,
      "ĠtempArray": 8603,
      "Ġtemperature": 8604,
      "shapley": 8605,
      "ĠAB": 8606,
      "ĠAc": 8607,
      "ĠAho": 8608,
      "ĠAND": 8609,
      "ĠAwruk": 8610,
      "ĠAliquot": 8611,
      "Ġmodific": 8612,
      "645": 8613,
      "ĠIS": 8614,
      "Ġsever": 8615,
      "Ġsecre": 8616,
      "Ġrepunits": 8617,
      "ĠSa": 8618,
      "ĠSimpson": 8619,
      "ackhorse": 8620,
      "Ġassertion": 8621,
      "ĠassertValid": 8622,
      "imod": 8623,
      "isprime": 8624,
      "isupper": 8625,
      "isalpha": 8626,
      "unsorted": 8627,
      "under": 8628,
      "ĠtestTr": 8629,
      "getInorder": 8630,
      "Ġarithmetic": 8631,
      "parama": 8632,
      "Ġjok": 8633,
      "ĠMU": 8634,
      "ĠMan": 8635,
      "ĠMex": 8636,
      "ĠMag": 8637,
      "ĠMorse": 8638,
      "ĠMoTree": 8639,
      "ĠmaxK": 8640,
      "Ġmaxim": 8641,
      "Ġmaximal": 8642,
      "ĠmaxSum": 8643,
      "ĠmaxScore": 8644,
      "Ġ\\*\\*\\": 8645,
      "Ġ////": 8646,
      "ĠCD": 8647,
      "ĠCH": 8648,
      "ĠCO": 8649,
      "ĠCol": 8650,
      "ĠCaesar": 8651,
      "ĠCSV": 8652,
      "Ġchanging": 8653,
      "cepts": 8654,
      "maxn": 8655,
      "maxx": 8656,
      "Ġgetting": 8657,
      "Ġnumbered": 8658,
      "Ġdoubles": 8659,
      "Ġ'=": 8660,
      "Ġ'_": 8661,
      "quared": 8662,
      "ultane": 8663,
      "Ġhs": 8664,
      "Ġhappy": 8665,
      "Ġhref": 8666,
      "Ġ[\\&](": 8667,
      "Ġthough": 8668,
      "Ġexclude": 8669,
      "Ġexclusive": 8670,
      "))||((": 8671,
      "ĠRes": 8672,
      "ĠRoman": 8673,
      "ĠRECT": 8674,
      "ĠstartCol": 8675,
      "inds": 8676,
      "ĠendCol": 8677,
      "ĠendRow": 8678,
      "Ġ+=(": 8679,
      "Ġonto": 8680,
      "ĠBen": 8681,
      "ĠBut": 8682,
      "ĠBFT": 8683,
      "ĠBUF": 8684,
      "ĠBicsi": 8685,
      "Ġ51": 8686,
      "Ġ50000": 8687,
      "ĠFrac": 8688,
      "ĠFermat": 8689,
      "Ġmincoins": 8690,
      "ĠLI": 8691,
      "ĠLog": 8692,
      "ĠLEN": 8693,
      "ĠLOG": 8694,
      "ordinary": 8695,
      "Ġcliques": 8696,
      "Ġdetails": 8697,
      "Ġdelim": 8698,
      "Ġdeletion": 8699,
      "Ġdecrement": 8700,
      "Ġdeallocate": 8701,
      "ippet": 8702,
      "Ġ68": 8703,
      "Ġ600": 8704,
      "atabad": 8705,
      "ĠDest": 8706,
      "ĠDaul": 8707,
      "Ġaltern": 8708,
      "1024": 8709,
      "Ġsumar": 8710,
      "320": 8711,
      "Ġqlow": 8712,
      "ructor": 8713,
      "extc": 8714,
      "ĠEra": 8715,
      "ĠEnd": 8716,
      "ĠEnter": 8717,
      "ĠEns": 8718,
      "ĠEdges": 8719,
      "ĠEng": 8720,
      "ĠEratosthenes": 8721,
      "ĠElod": 8722,
      "Ġresulting": 8723,
      "Ġprintsolution": 8724,
      "Ġnever": 8725,
      "Ġscanning": 8726,
      "Ġscanned": 8727,
      "nder": 8728,
      "arrow": 8729,
      ">(-": 8730,
      "akh": 8731,
      "Ġfastptr": 8732,
      "Ġexplanation": 8733,
      "abac": 8734,
      "ĠcompID": 8735,
      "Ġcomposite": 8736,
      "},{},{": 8737,
      "Ġ105": 8738,
      "(){}": 8739,
      "Ġprov": 8740,
      "Ġproce": 8741,
      "Ġproof": 8742,
      "Ġprobably": 8743,
      "lavors": 8744,
      "Ġimplementing": 8745,
      "sets": 8746,
      "setOfCities": 8747,
      "ĠKadane": 8748,
      "ĠKelvin": 8749,
      "140": 8750,
      "147": 8751,
      "reduce": 8752,
      "Ġcharge": 8753,
      "ĠrandExp": 8754,
      "ĠrandInt": 8755,
      "ĠrandDouble": 8756,
      "ountains": 8757,
      "ĠnewEdge": 8758,
      "Ġoperands": 8759,
      "etro": 8760,
      "ĠOdd": 8761,
      "ĠOne": 8762,
      "coord": 8763,
      "Ġ71": 8764,
      "proj": 8765,
      "projection": 8766,
      "2431": 8767,
      "Ġsubproblems": 8768,
      "370": 8769,
      "377": 8770,
      "horizontal": 8771,
      "TestCase": 8772,
      "TestData": 8773,
      "Ġhelps": 8774,
      "ĠfindMin": 8775,
      "ĠfindParent": 8776,
      "896": 8777,
      "Ġpreferences": 8778,
      "ĠcurrentNode": 8779,
      "Ġbreaks": 8780,
      "Ġsolves": 8781,
      "Ġsolving": 8782,
      "())));": 8783,
      "Ġ86": 8784,
      "Ġ88": 8785,
      "ĠInvalid": 8786,
      "Ġ95": 8787,
      "Ġsudoku": 8788,
      "Ġsuitable": 8789,
      "1231": 8790,
      "Ġpats": 8791,
      "Ġsha": 8792,
      "Ġshall": 8793,
      "rootNode": 8794,
      "Ġprim": 8795,
      "Ġprimality": 8796,
      "Ġinitil": 8797,
      "trans": 8798,
      "tracer": 8799,
      "pplied": 8800,
      "indexed": 8801,
      "strin": 8802,
      "strcmp": 8803,
      "Ġrightmost": 8804,
      "ĠĠĠĠĠĠĠĠĠĠĠĠĠĠĠĠĠĠĠĠĠĠĠĠĠĠĠĠĠĠĠĠĠĠĠĠĠĠĠĠĠĠĠĠĠĠĠ": 8805,
      "ĠĠĠĠĠĠĠĠĠĠĠĠĠĠĠĠĠĠĠĠĠĠĠĠĠĠĠĠĠĠĠĠĠĠĠĠĠĠĠĠĠĠĠĠĠĠĠĠĠ": 8806,
      "ĠĠĠĠĠĠĠĠĠĠĠĠĠĠĠĠĠĠĠĠĠĠĠĠĠĠĠĠĠĠĠĠĠĠĠĠĠĠĠĠĠĠĠĠĠĠĠĠĠĠĠĠĠĠĠĠĠĠĠĠĠ": 8807,
      "({-": 8808,
      "computed": 8809,
      "Ġ$[": 8810,
      "rone": 8811,
      "ĠstackIndex": 8812,
      "Ġtravell": 8813,
      "subsegment": 8814,
      "116": 8815,
      "Ġleak": 8816,
      "ĠSequence": 8817,
      "ayush": 8818,
      "ĠotherList": 8819,
      "pairs": 8820,
      "]]]": 8821,
      "166": 8822,
      "prism": 8823,
      "ternal": 8824,
      "Ġcells": 8825,
      "cian": 8826,
      "Ġeng": 8827,
      "Ġencoding": 8828,
      "ĠnextHigh": 8829,
      "ĠlogX": 8830,
      "countInversion": 8831,
      "findSet": 8832,
      "pression": 8833,
      "Ġcounts": 8834,
      "oneThird": 8835,
      "Ġcontinues": 8836,
      "popcount": 8837,
      "SortRP": 8838,
      "Ġtrio": 8839,
      "Ġtriang": 8840,
      "Ġtridia": 8841,
      "ĠedgeID": 8842,
      "ĠComparing": 8843,
      "formed": 8844,
      "practice": 8845,
      "temperature": 8846,
      "ĠdeleteNode": 8847,
      "vised": 8848,
      "Ġinitiali": 8849,
      "travelling": 8850,
      "Ġspent": 8851,
      "Start": 8852,
      "Ġhascycle": 8853,
      "ĠfoundDist": 8854,
      "307": 8855,
      "308": 8856,
      "181": 8857,
      "184": 8858,
      "1828": 8859,
      "177": 8860,
      "Self": 8861,
      "cstddef": 8862,
      "343": 8863,
      "196": 8864,
      "Ġmultiplic": 8865,
      "ĠparentB": 8866,
      "Ġdiffer": 8867,
      "ffff": 8868,
      "Ġinvs": 8869,
      "TESTS": 8870,
      "Ġbestlen": 8871,
      ")/(": 8872,
      "00010": 8873,
      "limit": 8874,
      "Ġgenerating": 8875,
      "suggestions": 8876,
      "569": 8877,
      "ĠExpression": 8878,
      "again": 8879,
      "Ġentries": 8880,
      "velive": 8881,
      "Ġquad": 8882,
      "ĠlowerCase": 8883,
      "Ġ{}};": 8884,
      "ĠsegmentIntersection": 8885,
      "ĠreverseOrder": 8886,
      "omeSort": 8887,
      "290": 8888,
      "366": 8889,
      "368": 8890,
      "ĠDecrypt": 8891,
      "ĠDetermin": 8892,
      "makeBST": 8893,
      "ĠlargeNumber": 8894,
      "Ġ100001": 8895,
      "imak": 8896,
      "Ġinfinity": 8897,
      "540": 8898,
      "Unit": 8899,
      "Ġ143": 8900,
      "ĠLinearSearch": 8901,
      "Ġactually": 8902,
      "SearchSuggestions": 8903,
      "ĠNumbers": 8904,
      "ãĥĨãĥ": 8905,
      "Ġpages": 8906,
      "ĠblockSize": 8907,
      "Ġ505": 8908,
      "Ġperforming": 8909,
      "ĠMatrixChain": 8910,
      "ĠcircleLine": 8911,
      "ĠcircleTangents": 8912,
      "Ġflows": 8913,
      "Proj": 8914,
      "Projectile": 8915,
      "ffixArray": 8916,
      "green": 8917,
      "Ġfreqs": 8918,
      "effic": 8919,
      "scal": 8920,
      "buy": 8921,
      "ĠWeights": 8922,
      "Ġpartitions": 8923,
      "Ġpartitioned": 8924,
      "END": 8925,
      "intermedi": 8926,
      "Connected": 8927,
      "Ġappend": 8928,
      "Ġwants": 8929,
      "Ġwanted": 8930,
      "INFL": 8931,
      ")\"(": 8932,
      "safe": 8933,
      "Ġachie": 8934,
      "Ġupdating": 8935,
      "radoewoosh": 8936,
      "Ġsignify": 8937,
      "ĠGets": 8938,
      "Ġworkset": 8939,
      "Ġconverts": 8940,
      "Ġconverting": 8941,
      "Ġlinearly": 8942,
      "IME": 8943,
      "Modular": 8944,
      "ToString": 8945,
      "ToBe": 8946,
      "Ġcrypt": 8947,
      "ĠsqrtN": 8948,
      "Ġpreviously": 8949,
      "Ġplants": 8950,
      "ĠQueries": 8951,
      "Supplied": 8952,
      "SuffixArray": 8953,
      "multiple": 8954,
      "assignment": 8955,
      "Ġsearches": 8956,
      "lobal": 8957,
      "PII": 8958,
      "Ġ--->": 8959,
      "Ġgrundy": 8960,
      "bling": 8961,
      "blockIndex": 8962,
      "Ġproducts": 8963,
      "ĠIterate": 8964,
      "twoThird": 8965,
      "Ġlabels": 8966,
      "quickSortRP": 8967,
      "Ġobjects": 8968,
      "ĠCreateTree": 8969,
      "ãģ®ãĤ³ãĥ³ãĥĨãĤ¹ãĥĪãģ®ãĤ¿ãĤ¤ãĥķãĤĴ": 8970,
      "forwardOrder": 8971,
      "itted": 8972,
      "Ġtracks": 8973,
      "Ġtracker": 8974,
      "Anmol": 8975,
      "Ġfinite": 8976,
      "idijkstra": 8977,
      "Ġglass": 8978,
      "Ġselecting": 8979,
      "})}));": 8980,
      "reverseOrder": 8981,
      "ĠSets": 8982,
      "Ġspecial": 8983,
      "Ġerased": 8984,
      "ĠEncrypt": 8985,
      "Coins": 8986,
      "SegmentTree": 8987,
      "fastpow": 8988,
      "lightly": 8989,
      "Ġimportant": 8990,
      "Ġhandling": 8991,
      "ĠAppend": 8992,
      "Ġ365": 8993,
      "Ġfourth": 8994,
      "Ġfourier": 8995,
      "Deleted": 8996,
      "IGHT": 8997,
      "pivotIndex": 8998,
      "itemArray": 8999,
      "ĠRunning": 9000,
      "ALINE": 9001,
      "ĠFastMod": 9002,
      "Ġallocation": 9003,
      "UnionSet": 9004,
      "Ġmemoization": 9005,
      "Ġsupports": 9006,
      "ĠAlloc": 9007,
      "groups": 9008,
      "Ġccw": 9009,
      "ĠccRadius": 9010,
      "ĠforwardOrder": 9011,
      "lcmSum": 9012,
      "labels": 9013,
      "Ġ\"]\"": 9014,
      "isEmptyQueue": 9015,
      "isEmptyStack": 9016,
      "Ġidentity": 9017,
      "binomialCoeffSum": 9018,
      "Ġsimultane": 9019,
      "Ġtranspose": 9020,
      "Ġperms": 9021,
      "divisor": 9022,
      "initializer": 9023,
      "Ġnormalize": 9024,
      "Ġeggs": 9025,
      "ĠChar": 9026,
      "Ġcollinear": 9027,
      "Ġsubtracting": 9028,
      "scanf": 9029,
      "tutu": 9030,
      "tutuv": 9031,
      "Ġslowptr": 9032,
      "Ġadvanta": 9033,
      "Shapley": 9034,
      "Ġnegated": 9035,
      "ĠEasterYearMonthDay": 9036,
      "ĠVariance": 9037,
      "Ġapproximately": 9038,
      "ĠPerforms": 9039,
      "tolerance": 9040,
      "windowSize": 9041,
      "Ġstripy": 9042,
      "ãģ«éĸĭåĤ¬": 9043,
      "fiboSum": 9044,
      "Ġneighbours": 9045,
      "Ġâī¡": 9046,
      "Floyd": 9047,
      "LAR": 9048,
      "Least": 9049,
      "Ġreversing": 9050,
      "Ġmaintaining": 9051,
      "Ġconfir": 9052,
      "ĠOnly": 9053,
      "operations": 9054,
      "rotation": 9055,
      "Ġerrors": 9056,
      "combine": 9057,
      "Ġauxiliary": 9058,
      "cmpL": 9059,
      "ĠAndrew": 9060,
      "ĠChoose": 9061,
      "Ġcombines": 9062,
      "Ġtermination": 9063,
      "largestPower": 9064,
      "*)&": 9065,
      "Ġestimate": 9066,
      "Ġsubsequent": 9067,
      "Ġsubsequences": 9068,
      "ĠbitonicSort": 9069,
      "ĠbitonicMerge": 9070,
      "SelectionSort": 9071,
      "successCount": 9072,
      "200020": 9073,
      "Ġroad": 9074,
      "quadraticEquation": 9075,
      "ĠBloomFilter": 9076,
      "ĠLucian": 9077,
      "ĠConsTree": 9078,
      "Ġ\"^\"": 9079,
      "ĠSuggestAutocomplete": 9080,
      "ĠSuggestFreqAutocomplete": 9081,
      "ĠLRUCache": 9082,
      "Ġequivalent": 9083,
      "ATIONS": 9084,
      "digitSeparationReverseOrder": 9085,
      "digitSeparationForwardOrder": 9086,
      "baaabab": 9087,
      "ĠAustrin": 9088,
      "Ġdesired": 9089,
      "Ġnecessary": 9090,
      "OfPuzzleInfoWith": 9091,
      "aussian": 9092,
      "wasException": 9093,
      "steady": 9094,
      "Ġrefers": 9095,
      "Ġoccup": 9096,
      "otoneChain": 9097,
      "ITERATIONS": 9098,
      "ĠdigitSeparationReverseOrder": 9099,
      "differential": 9100,
      "Ġåħ¥": 9101,
      "Ġorthogonalised": 9102,
      "AdjList": 9103,
      "Danik": 9104,
      "Hamming": 9105,
      "PageFault": 9106,
      "Regular": 9107,
      "grahamscan": 9108,
      "satisfiable": 9109,
      "æĽ´": 9110,
      "Ġpurposes": 9111,
      "Ġperticular": 9112,
      "Ġpractice": 9113,
      "ĠImplements": 9114,
      "Ġsequentially": 9115,
      "ĠSPOJ": 9116,
      "Ġdecide": 9117,
      "ĠENGLISH": 9118,
      "Ġpossibilities": 9119,
      "InsidePolygon": 9120,
      "Ġmeasured": 9121,
      "ãģķãĤĮ": 9122,
      "mondsKarp": 9123,
      "ĠtopoSort": 9124,
      "SalesmanProblem": 9125,
      "200005": 9126,
      "PerUnit": 9127,
      "Ġchess": 9128,
      "Ġstudents": 9129,
      "ĠALPHA": 9130,
      "ĠMapOfPuzzleInfoWith": 9131,
      "Ġminimizing": 9132,
      "ĠEuclidian": 9133,
      "ĠOrthogonal": 9134,
      "ĠCocktailSelectionSort": 9135,
      "ĠrandomSimpleGraphAsEdgeList": 9136,
      "columns": 9137,
      "Ġcollisions": 9138,
      "12321421424": 9139,
      "åĬĽãĥĨãĥ": 9140,
      "ĠApproach": 9141,
      "erlekampMassey": 9142,
      "Ġexhausted": 9143,
      "Anton": 9144,
      "CHARS": 9145,
      "GOLDEN": 9146,
      "Humid": 9147,
      "HopcorftKarp": 9148,
      "Update": 9149,
      "binsrch": 9150,
      "falsi": 9151,
      "yndon": 9152,
      "erOneBit": 9153,
      "deltas": 9154,
      "Ġmartix": 9155,
      "Ġsssp": 9156,
      "Ġindividual": 9157,
      "Ġtogether": 9158,
      "Ġseveral": 9159,
      "Ġsecret": 9160,
      "getInorderSuccessor": 9161,
      "ĠDaulatabad": 9162,
      "ĠEnsure": 9163,
      "ĠEnglish": 9164,
      "ĠElodreip": 9165,
      "ĠrandIntPt": 9166,
      "Ġtravelled": 9167,
      "ĠnextHigherOneBit": 9168,
      "Ġtridiagonal": 9169,
      "ĠMatrixChainMultip": 9170,
      "intermediates": 9171,
      "Ġsimultaneous": 9172,
      "åĬĽãĥĨãĥ¼ãĤ¿": 9173,
      "\"%": 9174,
      "\"/>": 9175,
      "#\";": 9176,
      "${": 9177,
      "${-": 9178,
      "'(": 9179,
      "(~": 9180,
      ")++;": 9181,
      ")<=": 9182,
      ")>&": 9183,
      ")^{": 9184,
      ")}{": 9185,
      "*_": 9186,
      "+\\": 9187,
      "+';": 9188,
      "-=(": 9189,
      "/~": 9190,
      "131": 9191,
      "299": 9192,
      "216": 9193,
      "239": 9194,
      "286": 9195,
      "2333": 9196,
      "30000": 9197,
      "315": 9198,
      "316": 9199,
      "387": 9200,
      "432": 9201,
      "484": 9202,
      "488": 9203,
      "512": 9204,
      "539": 9205,
[...]
